<unk>	0
<s>	0
</s>	0
▁the	-2.93598
,	-3.32624
.	-3.40557
▁of	-3.48372
▁and	-3.83343
▁in	-4.14005
▁to	-4.23245
-	-4.27256
▁(	-4.44148
▁a	-4.45685
▁is	-4.59615
)	-4.73008
▁The	-4.82491
▁for	-4.88494
▁with	-4.95877
▁that	-5.17764
▁by	-5.20736
▁was	-5.21926
▁as	-5.29009
▁are	-5.35056
2	-5.37014
▁at	-5.42592
▁be	-5.49998
▁on	-5.53914
▁were	-5.55807
s	-5.6
▁from	-5.62407
(	-5.73734
/	-5.85124
C	-5.96497
▁which	-5.99137
▁this	-6.02276
▁an	-6.02334
▁In	-6.04283
▁1	-6.04593
),	-6.05149
▁can	-6.09859
H	-6.13871
–	-6.25776
).	-6.27031
▁2	-6.27887
▁Fig	-6.30513
3	-6.33592
▁or	-6.36462
▁have	-6.37642
▁not	-6.46863
▁used	-6.49123
▁.	-6.49706
▁using	-6.49832
:	-6.5064
▁between	-6.51037
▁has	-6.54789
O	-6.55085
▁This	-6.57211
▁it	-6.57623
▁we	-6.58213
▁been	-6.58995
▁=	-6.59282
▁A	-6.59398
▁also	-6.59402
▁than	-6.60328
▁temperature	-6.62617
▁3	-6.63893
;	-6.64319
▁two	-6.6522
▁surface	-6.65591
m	-6.6786
▁C	-6.70164
a	-6.70374
▁high	-6.75385
▁results	-6.77708
1	-6.78704
e	-6.79836
▁H	-6.81079
▁these	-6.8256
▁different	-6.82838
t	-6.83456
▁time	-6.85868
▁energy	-6.88738
▁shown	-6.90122
d	-6.90257
▁°	-6.9139
4	-6.91407
▁model	-6.93031
▁data	-6.95434
▁more	-6.95884
i	-6.98367
b	-6.98503
▁water	-6.98627
▁one	-6.99289
▁4	-7.0072
▁into	-7.01648
▁	-7.0168
▁observed	-7.01835
▁obtained	-7.01895
▁other	-7.02697
Fig	-7.03245
▁system	-7.03458
▁where	-7.05772
▁solution	-7.05887
▁such	-7.06092
▁all	-7.07011
▁5	-7.07885
+	-7.08529
▁It	-7.09345
▁For	-7.10826
▁values	-7.12237
▁both	-7.12375
x	-7.13438
▁et	-7.13553
▁al	-7.14736
=	-7.14827
▁their	-7.15173
▁due	-7.16341
▁only	-7.16418
▁higher	-7.19664
g	-7.20082
▁reaction	-7.20111
▁study	-7.20472
n	-7.20808
▁each	-7.20915
▁structure	-7.21028
N	-7.21439
−	-7.21847
▁low	-7.22349
▁method	-7.22715
▁respectively	-7.232
D	-7.23228
▁m	-7.23313
▁but	-7.23555
▁rate	-7.23852
▁μ	-7.24105
▁its	-7.2414
▁S	-7.24687
▁N	-7.24751
▁process	-7.24955
c	-7.25905
▁when	-7.27331
▁phase	-7.27532
▁may	-7.2767
▁well	-7.28499
▁analysis	-7.29322
▁under	-7.2943
▁K	-7.29558
▁samples	-7.30402
▁As	-7.30901
▁value	-7.30911
▁found	-7.31294
▁However	-7.32638
A	-7.32825
▁h	-7.34016
▁during	-7.34191
S	-7.34292
▁effect	-7.35514
▁nm	-7.36216
▁after	-7.36822
▁concentration	-7.36835
▁shows	-7.37149
▁conditions	-7.37321
▁same	-7.38354
▁number	-7.38715
▁We	-7.41446
▁first	-7.42408
T	-7.43823
▁order	-7.43882
▁case	-7.43887
▁10	-7.44578
▁increase	-7.45058
k	-7.45722
−1	-7.45817
▁could	-7.45911
▁properties	-7.47532
▁size	-7.48229
▁sample	-7.48549
▁cm	-7.49051
▁g	-7.49226
▁range	-7.49927
B	-7.49936
▁three	-7.49988
L	-7.51356
▁cells	-7.51818
▁cell	-7.51819
▁J	-7.52209
▁based	-7.52742
▁will	-7.52984
▁,	-7.53162
▁flow	-7.53865
M	-7.53907
▁6	-7.54856
▁lower	-7.56163
▁M	-7.56717
▁Table	-7.56759
▁then	-7.56805
▁s	-7.56833
▁[	-7.56839
▁through	-7.56946
▁reported	-7.58251
▁no	-7.59901
▁over	-7.60929
0	-7.61255
▁present	-7.61357
▁very	-7.61523
▁our	-7.61628
▁most	-7.62501
p	-7.62511
▁large	-7.62619
▁T	-7.6273
▁formation	-7.63489
P	-7.6353
▁P	-7.64233
▁state	-7.64718
▁These	-7.6478
▁similar	-7.65084
▁function	-7.65635
▁while	-7.65662
▁compared	-7.65753
▁layer	-7.66413
▁V	-7.66485
▁B	-7.66531
▁potential	-7.6662
▁measured	-7.66855
▁small	-7.67436
▁out	-7.67602
▁i	-7.67829
▁use	-7.6801
▁material	-7.68204
r	-7.68611
▁about	-7.69183
▁non	-7.69491
▁density	-7.69672
R	-7.69737
▁ratio	-7.69913
▁calculated	-7.70087
▁parameters	-7.70695
▁To	-7.71332
▁pressure	-7.71661
α	-7.72153
▁some	-7.72378
▁there	-7.73012
▁experimental	-7.73135
▁acid	-7.73149
▁addition	-7.73356
▁field	-7.73839
’	-7.73859
▁because	-7.74063
▁Hz	-7.75757
▁performed	-7.76016
▁materials	-7.7657
▁given	-7.77089
▁gas	-7.77185
▁area	-7.78735
▁above	-7.79088
▁min	-7.79096
▁within	-7.79179
▁current	-7.79761
▁increased	-7.80717
▁show	-7.80809
▁studies	-7.81357
▁peak	-7.81505
▁p	-7.81532
▁particles	-7.82429
▁further	-7.82474
6	-7.82655
▁electron	-7.82762
▁metal	-7.83204
▁work	-7.83464
▁total	-7.8388
▁presence	-7.83991
▁single	-7.83993
▁heat	-7.83993
F	-7.84007
▁form	-7.84269
▁carbon	-7.84375
▁spectra	-7.84506
▁result	-7.8489
E	-7.85038
▁O	-7.86087
▁those	-7.86132
▁L	-7.86155
▁R	-7.86922
z	-7.87062
y	-7.87843
▁D	-7.88609
▁activity	-7.88928
▁systems	-7.89174
▁().	-7.89182
▁determined	-7.89286
▁distribution	-7.89352
▁Eq	-7.90719
▁significant	-7.90796
▁important	-7.9097
5	-7.91171
▁should	-7.9143
▁thermal	-7.9159
▁constant	-7.91629
▁following	-7.91791
▁mass	-7.92175
▁“	-7.9234
▁corresponding	-7.926
▁showed	-7.92747
▁effects	-7.92834
▁would	-7.93348
f	-7.93479
▁mm	-7.94006
▁level	-7.94843
▁set	-7.94855
▁E	-7.9495
▁X	-7.94964
▁performance	-7.94967
▁region	-7.95204
▁group	-7.95676
▁CO	-7.96104
▁they	-7.96194
▁new	-7.96621
▁complex	-7.96666
▁n	-7.96805
I	-7.96836
▁control	-7.97213
▁applied	-7.97329
▁change	-7.97925
▁×	-7.98039
▁experiments	-7.98059
▁power	-7.98492
▁measurements	-7.98537
▁d	-7.98634
▁growth	-7.98727
▁7	-7.98746
▁species	-7.98816
▁+	-7.99607
”	-8.01233
▁up	-8.01479
▁point	-8.017
▁film	-8.01788
▁maximum	-8.01804
▁described	-8.01856
j	-8.0271
▁increasing	-8.02879
▁stress	-8.02884
▁8	-8.03272
▁groups	-8.03404
▁δ	-8.03715
l	-8.03793
▁less	-8.04105
▁average	-8.04512
V	-8.04606
▁considered	-8.04674
'	-8.04723
▁0	-8.04776
▁Therefore	-8.04842
▁pH	-8.04917
▁chemical	-8.05
▁hydrogen	-8.05856
▁proposed	-8.06276
CH	-8.06679
▁I	-8.06708
▁NMR	-8.06861
▁mg	-8.07058
▁possible	-8.07166
▁prepared	-8.07799
▁solid	-8.08336
▁structures	-8.0834
▁α	-8.08594
▁any	-8.08997
▁if	-8.09169
▁increases	-8.09272
▁compounds	-8.09328
▁c	-8.09357
▁initial	-8.09431
▁approach	-8.09766
▁methods	-8.09779
h	-8.10246
▁mL	-8.10322
▁presented	-8.10396
▁t	-8.10503
▁amount	-8.10708
▁20	-8.10789
▁oxygen	-8.10888
▁so	-8.10978
▁volume	-8.1119
▁reduction	-8.11232
▁films	-8.11685
▁mixture	-8.12114
▁transfer	-8.12185
▁test	-8.12546
▁without	-8.12639
]	-8.12716
▁changes	-8.13262
▁ions	-8.13511
▁along	-8.13654
v	-8.13756
▁second	-8.15363
▁various	-8.1558
▁molecules	-8.15584
▁matrix	-8.15841
▁Fe	-8.15941
▁content	-8.16196
▁difference	-8.16536
▁Cu	-8.16762
K	-8.16968
▁much	-8.17182
▁band	-8.17623
▁F	-8.17927
▁models	-8.18233
▁charge	-8.18342
▁air	-8.18808
▁yield	-8.19179
▁concentrations	-8.19567
▁electrode	-8.19685
▁Thus	-8.19764
β	-8.1995
▁transition	-8.2016
▁interaction	-8.20205
▁frequency	-8.20248
θ	-8.20269
▁magnetic	-8.204
▁temperatures	-8.20454
▁larger	-8.20739
▁atoms	-8.21026
▁efficiency	-8.21034
▁several	-8.21039
▁particle	-8.21056
▁x	-8.21183
▁studied	-8.21553
▁thus	-8.2167
▁length	-8.21736
▁behavior	-8.21739
▁100	-8.21924
G	-8.22087
▁example	-8.22202
▁production	-8.22242
▁molecular	-8.22394
▁light	-8.22457
▁good	-8.22731
▁CH	-8.23268
▁relative	-8.23294
▁decrease	-8.24016
▁ion	-8.24209
▁reduced	-8.24266
u	-8.24319
▁significantly	-8.24514
▁adsorption	-8.24711
▁).	-8.24717
▁paper	-8.24881
▁absorption	-8.25004
▁treatment	-8.25076
▁liquid	-8.25252
▁investigated	-8.25476
▁carried	-8.25517
▁related	-8.26105
▁specific	-8.26404
▁After	-8.26619
based	-8.26646
▁formed	-8.26805
▁thickness	-8.27865
2+	-8.27942
see	-8.28314
▁developed	-8.28453
▁type	-8.28725
▁seen	-8.28781
▁intensity	-8.29119
▁added	-8.29253
▁30	-8.29844
▁had	-8.29845
▁even	-8.29962
▁catalyst	-8.30274
▁̄	-8.30381
▁resulting	-8.30405
▁response	-8.30586
▁product	-8.30805
▁substrate	-8.31026
▁solutions	-8.31061
▁times	-8.31134
▁standard	-8.31291
▁oxidation	-8.32002
▁equation	-8.32013
μ	-8.32045
▁At	-8.32808
▁organic	-8.3296
σ	-8.33117
▁linear	-8.33165
ω	-8.33415
▁associated	-8.33531
▁factor	-8.33907
▁step	-8.34192
▁levels	-8.34741
▁long	-8.34744
▁around	-8.34944
▁expected	-8.35027
▁β	-8.35198
▁sites	-8.35361
▁many	-8.35365
▁main	-8.35495
▁k	-8.3559
▁mechanism	-8.3567
▁spectrum	-8.35777
▁since	-8.35857
▁strain	-8.36001
▁processes	-8.36087
▁containing	-8.36114
▁membrane	-8.36472
▁information	-8.36605
▁part	-8.36848
▁peaks	-8.36907
▁Å	-8.37362
▁G	-8.37379
▁being	-8.37452
▁stability	-8.37528
▁strength	-8.37533
▁design	-8.37908
▁crystal	-8.38237
▁previous	-8.38237
▁free	-8.38284
▁effective	-8.38375
▁Δ	-8.38736
▁four	-8.39465
▁states	-8.39618
▁room	-8.39659
X	-8.39863
▁including	-8.39981
▁polymer	-8.40171
w	-8.40185
▁line	-8.4062
▁−	-8.40697
▁comparison	-8.40723
▁mean	-8.4088
▁known	-8.40886
▁All	-8.40951
▁velocity	-8.41027
Δ	-8.41471
▁below	-8.41522
q	-8.4192
λ	-8.41935
▁defined	-8.42109
▁e	-8.42579
▁eV	-8.42828
▁13	-8.42972
▁Al	-8.43358
φ	-8.43562
▁made	-8.43641
▁signal	-8.43692
▁9	-8.43751
▁via	-8.43798
▁active	-8.43855
▁parameter	-8.43981
▁complexes	-8.44121
▁before	-8.44268
▁terms	-8.44679
▁interface	-8.44755
%	-8.45054
▁(1	-8.4509
▁strong	-8.45099
▁per	-8.45265
▁Ni	-8.45294
▁50	-8.4551
or	-8.45518
▁mode	-8.45568
▁bond	-8.45628
▁does	-8.45647
▁influence	-8.45751
2,	-8.45828
π	-8.45853
▁according	-8.45854
▁local	-8.45868
▁interactions	-8.45988
▁emission	-8.46554
▁diffusion	-8.46872
▁On	-8.47205
▁mmol	-8.47437
▁products	-8.47614
▁b	-8.48313
ε	-8.48323
ray	-8.48419
▁cases	-8.4843
▁composition	-8.48899
▁Co	-8.4893
▁W	-8.48964
▁capacity	-8.49105
▁15	-8.49109
▁direction	-8.49117
▁When	-8.49126
▁source	-8.49201
▁f	-8.49225
▁components	-8.49272
▁applications	-8.49392
▁problem	-8.49524
▁cross	-8.49791
′	-8.49899
▁resistance	-8.49994
▁12	-8.50322
▁Si	-8.5045
▁synthesis	-8.50601
▁reactions	-8.50836
▁provide	-8.50949
▁protein	-8.51046
▁relatively	-8.52156
▁±	-8.52277
∂	-8.5239
▁coefficient	-8.52508
▁smaller	-8.52608
in	-8.52729
▁diameter	-8.52785
▁therefore	-8.53413
▁structural	-8.53548
=1	-8.53566
▁better	-8.53629
▁distance	-8.53767
▁unit	-8.53891
▁nanoparticles	-8.53896
▁boundary	-8.54112
▁required	-8.54252
▁obtain	-8.54271
▁however	-8.54292
▁available	-8.54294
▁oxide	-8.54504
▁stable	-8.54518
ρ	-8.54672
▁Figure	-8.55419
▁force	-8.55442
▁rates	-8.55458
▁loss	-8.55718
▁weight	-8.56181
Table	-8.56201
▁procedure	-8.56303
▁optical	-8.5637
▁angle	-8.56661
▁layers	-8.56847
1,	-8.5688
▁development	-8.56907
▁solvent	-8.57016
▁produced	-8.57158
▁r	-8.57322
▁condition	-8.5768
▁fact	-8.57951
▁binding	-8.57965
▁general	-8.57966
II	-8.58102
▁near	-8.58501
▁previously	-8.5887
)=	-8.5908
▁contact	-8.60107
▁highly	-8.60287
-1	-8.60335
▁role	-8.60877
▁factors	-8.6097
▁side	-8.61035
▁site	-8.61198
δ	-8.61232
▁period	-8.61254
[	-8.61306
▁section	-8.61317
τ	-8.6158
▁either	-8.62054
8	-8.62416
▁spin	-8.62472
▁characteristics	-8.62475
▁indicates	-8.62484
7	-8.62566
▁fraction	-8.63179
▁close	-8.63457
▁Pt	-8.63618
γ	-8.63834
▁An	-8.64019
▁whereas	-8.64036
▁still	-8.64255
▁series	-8.65029
▁calculations	-8.65075
);	-8.65075
▁measurement	-8.65188
▁technique	-8.65256
▁space	-8.65361
▁hand	-8.65579
▁points	-8.65725
▁particular	-8.65802
▁Moreover	-8.65846
▁positive	-8.65864
▁compound	-8.66036
▁load	-8.66041
▁taken	-8.6618
▁cost	-8.66266
▁thin	-8.66497
▁follows	-8.66576
▁differences	-8.66605
ing	-8.66778
▁mol	-8.66786
▁here	-8.66809
W	-8.6703
▁position	-8.67063
▁U	-8.67172
▁estimated	-8.67692
▁experiment	-8.67881
▁means	-8.67928
▁expression	-8.67932
▁conductivity	-8.68176
▁voltage	-8.68179
▁elements	-8.68515
Cl	-8.68765
▁followed	-8.68765
▁curves	-8.68797
▁research	-8.68808
▁contrast	-8.68939
▁shape	-8.6899
▁surfaces	-8.69097
▁nitrogen	-8.69169
▁demonstrated	-8.6917
▁simulation	-8.69218
▁bulk	-8.69223
▁glass	-8.69378
▁determine	-8.6954
▁pure	-8.69657
▁σ	-8.70244
▁decreased	-8.70296
▁aqueous	-8.70299
▁Since	-8.70396
▁negative	-8.70518
Al	-8.70631
▁laser	-8.71123
2)	-8.71178
▁Although	-8.71292
▁generated	-8.71335
|	-8.71476
▁curve	-8.71556
▁application	-8.7157
▁transport	-8.71906
▁MHz	-8.72002
▁From	-8.72133
CO	-8.72433
▁approximately	-8.72805
▁Furthermore	-8.73208
▁core	-8.73472
▁mechanical	-8.73499
▁agreement	-8.73554
▁wt	-8.73582
Si	-8.73591
3,	-8.73716
▁do	-8.73865
▁scale	-8.73895
▁direct	-8.73969
▁decreases	-8.74003
▁medium	-8.74113
▁variation	-8.74161
▁fuel	-8.74227
▁deposition	-8.74278
▁lead	-8.74696
▁consistent	-8.74779
▁mainly	-8.74961
▁catalysts	-8.7507
▁reference	-8.75297
▁end	-8.75312
▁critical	-8.75416
▁component	-8.75518
▁detection	-8.75684
▁lattice	-8.75701
▁grain	-8.75784
▁indicated	-8.75863
▁network	-8.76013
▁simple	-8.76057
▁indicate	-8.76269
J	-8.76276
▁beam	-8.76292
▁images	-8.76318
▁correlation	-8.76526
▁types	-8.76556
▁oil	-8.76656
3+	-8.76995
OH	-8.77031
▁column	-8.77033
▁respect	-8.77093
▁additional	-8.77103
▁UV	-8.77149
▁literature	-8.77517
▁diffraction	-8.77658
▁If	-8.77702
▁TiO	-8.78068
▁heating	-8.78115
▁–	-8.78391
U	-8.78438
▁features	-8.78697
▁achieved	-8.78722
Q	-8.78724
▁ppm	-8.78825
▁final	-8.78845
▁impact	-8.79066
▁co	-8.79106
▁might	-8.79114
▁‘	-8.79311
▁phases	-8.79352
▁directly	-8.79395
▁must	-8.79411
▁indicating	-8.79459
▁attributed	-8.79476
▁Li	-8.79675
▁major	-8.79734
▁selected	-8.79842
▁DNA	-8.80146
▁separation	-8.80274
▁functions	-8.80429
▁discussed	-8.80591
▁mM	-8.80649
▁composite	-8.80744
▁recorded	-8.80747
▁electronic	-8.80867
2(	-8.80915
Fe	-8.81086
▁0.5	-8.81679
▁way	-8.81876
▁equilibrium	-8.82001
12	-8.82056
▁coupling	-8.82062
▁wave	-8.82097
▁typical	-8.82204
▁greater	-8.82205
▁almost	-8.82513
▁leads	-8.82541
▁conversion	-8.82567
▁theory	-8.82704
▁equations	-8.8279
▁25	-8.82902
▁normal	-8.83016
▁did	-8.83038
▁error	-8.8315
▁<	-8.83805
▁image	-8.84029
like	-8.84119
▁regions	-8.84316
▁pattern	-8.84617
▁slightly	-8.84644
▁best	-8.8469
▁loading	-8.84718
▁fluid	-8.84742
▁&	-8.84748
▁tests	-8.8475
▁mixed	-8.84886
▁)	-8.84972
▁basis	-8.85178
▁provided	-8.85236
to	-8.85317
▁numerical	-8.8536
▁natural	-8.85398
▁electrochemical	-8.85398
▁shear	-8.85444
▁zero	-8.8553
▁There	-8.85537
▁clearly	-8.85693
▁analyzed	-8.85814
▁account	-8.85845
▁plane	-8.85871
▁Section	-8.85959
▁identified	-8.86005
▁γ	-8.8603
▁areas	-8.86157
▁functional	-8.86214
▁occurs	-8.86228
3)	-8.86295
▁techniques	-8.8687
▁Ag	-8.86935
▁short	-8.86981
▁modified	-8.8724
▁least	-8.87247
▁atom	-8.87341
▁limit	-8.87354
▁few	-8.87418
▁cycle	-8.87424
▁With	-8.87449
▁pore	-8.87493
▁dependence	-8.87615
▁molecule	-8.87711
▁equal	-8.88134
▁target	-8.88173
▁derived	-8.88203
▁overall	-8.88341
▁11	-8.88612
▁activation	-8.88744
▁upon	-8.88779
▁element	-8.8879
▁years	-8.89223
▁highest	-8.89248
▁pre	-8.89259
▁collected	-8.89305
▁nature	-8.89483
▁flux	-8.89489
▁algorithm	-8.8951
▁Q	-8.89526
η	-8.89534
type	-8.89563
▁l	-8.89748
▁catalytic	-8.89823
▁synthesized	-8.89827
▁fluorescence	-8.89975
▁Au	-8.9
▁ligand	-8.90133
▁support	-8.90356
▁patterns	-8.90419
▁caused	-8.90419
▁employed	-8.90436
▁generation	-8.90528
▁tested	-8.9064
dimensional	-8.90794
▁ring	-8.90916
▁among	-8.90918
▁0.1	-8.90955
▁environment	-8.91139
▁physical	-8.91164
▁rather	-8.91315
▁speed	-8.91397
▁degradation	-8.9151
▁detected	-8.91567
▁characterized	-8.91635
▁chain	-8.91694
▁Na	-8.91911
):	-8.92009
▁200	-8.9209
{	-8.92111
▁simulations	-8.92151
▁deformation	-8.92463
▁depth	-8.92559
▁solar	-8.9263
▁Ti	-8.92694
▁quality	-8.92761
▁40	-8.9277
▁likely	-8.92803
▁shift	-8.92926
▁give	-8.92935
▁stage	-8.93634
▁real	-8.93669
▁limited	-8.93752
▁conducted	-8.93781
▁powder	-8.93828
▁plasma	-8.9416
min	-8.94383
▁see	-8.94423
▁against	-8.94479
▁spectroscopy	-8.94716
▁crystals	-8.94952
▁By	-8.95043
▁soil	-8.95345
▁assumed	-8.95463
▁(1)	-8.9549
▁days	-8.95519
▁fixed	-8.96098
▁degree	-8.96703
▁Then	-8.96713
▁self	-8.96819
▁evaluated	-8.96879
▁variables	-8.97264
▁λ	-8.9729
▁silica	-8.97385
▁located	-8.97499
▁bands	-8.975
ly	-8.97547
▁provides	-8.97723
▁zone	-8.97724
▁human	-8.97836
▁ε	-8.97876
▁micro	-8.98279
▁One	-8.98437
▁individual	-8.98499
▁ml	-8.98594
▁24	-8.9861
▁domain	-8.98677
▁internal	-8.9884
▁induced	-8.9885
▁characteristic	-8.98949
▁morphology	-8.99092
▁cannot	-8.99358
the	-8.99391
▁resolution	-8.99414
▁theoretical	-8.9947
▁removal	-8.9955
▁dynamic	-8.99609
▁radiation	-8.99799
▁steel	-8.99816
▁occur	-8.99874
▁Finally	-8.99931
MS	-8.99992
▁primary	-9.00093
▁minimum	-9.00182
▁They	-9.00283
▁60	-9.0029
▁clear	-9.00529
▁base	-9.00641
▁evolution	-9.00688
▁devices	-9.00982
10	-9.00999
▁becomes	-9.01043
▁energies	-9.01235
▁device	-9.01331
▁enhanced	-9.01403
▁like	-9.01455
▁efficient	-9.01465
▁reduce	-9.01491
▁relationship	-9.01528
9	-9.01618
▁v	-9.01667
▁improved	-9.01708
▁input	-9.01761
▁contribution	-9.01903
▁conventional	-9.01946
▁treated	-9.01961
▁coating	-9.01962
▁necessary	-9.02097
}	-9.02145
▁lines	-9.02399
▁wall	-9.02789
▁combination	-9.02819
cm	-9.02932
▁crack	-9.0335
▁although	-9.03561
▁another	-9.03656
▁cooling	-9.03694
▁>	-9.03758
▁profile	-9.03956
▁leading	-9.04061
Y	-9.04239
▁multi	-9.04393
▁strongly	-9.04567
▁ground	-9.04752
▁channel	-9.0479
▁gap	-9.05003
▁electrodes	-9.05065
▁y	-9.05194
▁term	-9.05243
▁IR	-9.05328
▁top	-9.05395
▁electrical	-9.054
ξ	-9.05667
▁how	-9.05688
▁confirmed	-9.05751
▁controlled	-9.0592
▁bonds	-9.0596
▁plate	-9.06068
▁suggested	-9.06217
▁recent	-9.06221
▁expressed	-9.06322
▁especially	-9.06348
▁coefficients	-9.06597
▁accuracy	-9.06864
▁produce	-9.06889
ν	-9.06896
▁scattering	-9.06967
▁Mn	-9.06968
▁sensitivity	-9.0698
▁1,	-9.07197
▁excitation	-9.07251
▁geometry	-9.07382
▁yields	-9.07408
▁full	-9.07576
▁represents	-9.07583
▁interest	-9.07669
▁improve	-9.07775
▁electric	-9.07825
▁Y	-9.07913
▁complete	-9.08034
▁reactor	-9.08141
▁wide	-9.08195
▁exchange	-9.08203
▁need	-9.08242
▁revealed	-9.08426
▁multiple	-9.08826
▁often	-9.08832
o	-9.08844
▁modes	-9.08966
ed	-9.09021
2/	-9.09139
▁units	-9.09172
▁quantum	-9.09421
▁Pd	-9.09466
▁magnitude	-9.09491
▁common	-9.09526
▁generally	-9.09618
▁copper	-9.09753
▁environmental	-9.09906
▁alloy	-9.09939
▁double	-9.0994
▁ethanol	-9.09983
▁configuration	-9.10225
▁operation	-9.10257
▁graphene	-9.1027
▁ability	-9.10287
−1)	-9.10355
▁dried	-9.10625
Z	-9.10748
▁suggest	-9.10951
▁300	-9.11051
▁optimal	-9.11151
▁proteins	-9.11377
▁suggests	-9.1163
▁independent	-9.11668
▁release	-9.11836
▁introduced	-9.11845
▁electrons	-9.11911
▁Here	-9.11921
▁analyses	-9.11988
▁predicted	-9.12096
·	-9.1228
▁suitable	-9.12307
▁(2)	-9.12601
Cu	-9.12668
▁extraction	-9.12985
▁dynamics	-9.13033
▁output	-9.1314
▁ratios	-9.13157
▁width	-9.13258
▁signals	-9.13437
▁θ	-9.13572
▁behaviour	-9.13578
▁iron	-9.13579
▁combined	-9.1362
▁continuous	-9.13781
▁Our	-9.13782
▁exhibit	-9.14104
▁Zn	-9.14239
▁deposited	-9.14258
▁electrolyte	-9.14275
▁storage	-9.14401
▁towards	-9.14405
▁sub	-9.14447
▁usually	-9.14455
▁anti	-9.14651
▁investigate	-9.14685
▁φ	-9.14749
▁five	-9.14785
up	-9.14892
▁parallel	-9.15125
▁together	-9.15255
▁According	-9.15283
▁sequence	-9.15319
▁onto	-9.15452
▁find	-9.15522
▁chosen	-9.15526
▁problems	-9.15591
▁ligands	-9.15684
▁across	-9.15775
▁(2	-9.158
▁re	-9.15874
▁edge	-9.15886
▁calculation	-9.15928
▁vector	-9.15992
▁XRD	-9.15994
▁inside	-9.15997
▁allows	-9.16202
▁included	-9.1621
▁preparation	-9.16283
▁tube	-9.16334
▁easily	-9.16434
▁atomic	-9.16452
∈	-9.16504
▁external	-9.16665
▁until	-9.16695
▁buffer	-9.16794
▁make	-9.16943
▁mechanisms	-9.16957
▁steps	-9.16965
▁substrates	-9.17206
▁w	-9.17233
▁measure	-9.17516
▁variable	-9.1759
▁methanol	-9.17746
▁include	-9.17927
▁specimens	-9.18092
▁spectral	-9.18334
▁τ	-9.1845
▁upper	-9.18461
▁resulted	-9.18467
▁depends	-9.18515
▁able	-9.18616
▁noted	-9.1865
▁1).	-9.1869
▁involved	-9.18703
▁de	-9.18751
▁spatial	-9.18863
▁corresponds	-9.18878
▁height	-9.19199
▁II	-9.19304
▁14	-9.19464
▁irradiation	-9.1957
▁removed	-9.19716
Ω	-9.19787
▁dissolved	-9.19794
▁having	-9.19797
▁finite	-9.19962
▁gives	-9.20145
)+	-9.20156
▁gel	-9.20191
▁absence	-9.20305
▁plant	-9.20371
▁whole	-9.20571
▁Mg	-9.20613
▁examined	-9.2062
▁appropriate	-9.20626
*	-9.20782
▁16	-9.20821
▁weak	-9.21012
▁cycles	-9.2115
▁operating	-9.21207
▁center	-9.21214
phase	-9.21419
▁analytical	-9.21434
▁profiles	-9.21459
▁place	-9.21542
▁NH	-9.21591
▁̃	-9.21719
▁index	-9.21909
▁intermediate	-9.21948
▁evidence	-9.21968
4,	-9.22018
−1,	-9.22133
▁become	-9.22137
▁detailed	-9.22207
▁500	-9.22238
III	-9.22277
▁recently	-9.22415
▁damage	-9.22454
▁decomposition	-9.22476
▁ionic	-9.22496
▁consider	-9.22539
▁latter	-9.22559
▁wind	-9.22655
▁fully	-9.22668
▁Figs	-9.22695
▁z	-9.22704
▁difficult	-9.228
▁represent	-9.23004
▁key	-9.23074
▁equivalent	-9.23124
▁axis	-9.23203
▁observations	-9.23281
▁membranes	-9.23331
▁half	-9.23341
▁Z	-9.23368
▁u	-9.23493
Ni	-9.23516
▁certain	-9.23523
▁far	-9.23594
→	-9.23673
▁consumption	-9.23722
▁vacuum	-9.23943
▁sensor	-9.23992
▁fields	-9.24141
▁sodium	-9.24296
▁longer	-9.24369
▁us	-9.24397
▁ρ	-9.24526
▁appears	-9.24533
▁porous	-9.24534
▁estimate	-9.24609
−1.	-9.24815
▁dependent	-9.24907
▁ν	-9.24998
▁orientation	-9.25039
▁drug	-9.25152
▁polymers	-9.25441
▁explained	-9.25525
▁q	-9.26157
▁Ca	-9.26188
▁displacement	-9.26332
▁1)	-9.26625
▁approaches	-9.26653
▁exhibited	-9.26681
▁sources	-9.26696
▁wavelength	-9.26711
and	-9.26817
▁them	-9.26834
▁While	-9.26942
▁original	-9.26994
▁observation	-9.27079
▁motion	-9.27154
▁down	-9.27285
▁secondary	-9.27298
▁placed	-9.27486
▁gradient	-9.27496
▁ZnO	-9.27607
▁poly	-9.27621
▁failure	-9.2774
mol	-9.2784
▁kinetic	-9.27853
▁bottom	-9.27899
▁NO	-9.28023
▁Cr	-9.28043
▁remains	-9.28076
▁elastic	-9.2808
▁processing	-9.2815
▁mixing	-9.28172
▁selectivity	-9.28531
▁crystalline	-9.28641
▁open	-9.28742
▁clusters	-9.28779
▁whether	-9.28797
▁now	-9.28883
SO	-9.28891
▁Hence	-9.29027
▁dispersion	-9.29185
▁probability	-9.29311
▁j	-9.29463
▁microscopy	-9.29552
▁nano	-9.29574
▁dry	-9.29581
Figure	-9.29606
▁vertical	-9.30011
induced	-9.30034
▁optimization	-9.30153
▁coordination	-9.30264
▁silicon	-9.30274
▁global	-9.3042
▁2-	-9.3048
▁transformation	-9.30593
▁partial	-9.30655
state	-9.30785
▁useful	-9.30817
▁Based	-9.30822
▁Both	-9.30832
▁isolated	-9.3097
▁feature	-9.31045
▁determination	-9.313
▁amounts	-9.31438
▁last	-9.31853
▁18	-9.32077
▁exposure	-9.32104
2),	-9.3212
▁constants	-9.32255
▁residual	-9.32285
▁affected	-9.32307
▁affect	-9.32354
▁uniform	-9.32386
▁symmetry	-9.32525
▁derivatives	-9.32592
▁knowledge	-9.32763
▁Such	-9.3279
▁transmission	-9.3298
▁probe	-9.3308
▁\	-9.33134
▁needed	-9.33184
▁excellent	-9.33396
▁fast	-9.33403
▁acids	-9.33624
▁requires	-9.33745
▁mentioned	-9.34037
▁washed	-9.34065
11	-9.34092
▁designed	-9.34261
▁relation	-9.34305
0,	-9.34362
▁chains	-9.34369
▁coupled	-9.34493
▁completely	-9.34681
dependent	-9.34708
▁fracture	-9.34754
▁novel	-9.34942
▁interesting	-9.34959
▁authors	-9.35057
▁consists	-9.35192
▁emissions	-9.35683
▁visible	-9.35959
▁future	-9.35986
▁adsorbed	-9.36188
▁amplitude	-9.36237
▁Using	-9.36327
▁widely	-9.36342
▁quite	-9.36343
▁cluster	-9.36401
NO	-9.36416
▁lowest	-9.36611
▁variations	-9.3671
▁scheme	-9.3679
▁central	-9.36832
▁SEM	-9.36931
▁biological	-9.3709
▁relaxation	-9.37098
Co	-9.37144
▁biomass	-9.37152
NH	-9.37326
▁trend	-9.37336
▁software	-9.37491
▁next	-9.37572
▁allow	-9.37644
▁subsequent	-9.37649
▁red	-9.37709
▁forms	-9.37755
▁population	-9.37787
▁atmosphere	-9.37818
▁random	-9.37892
▁Because	-9.37933
▁evaluate	-9.37954
▁cause	-9.38068
▁hybrid	-9.38286
▁fiber	-9.38385
▁allowed	-9.38398
▁sizes	-9.3848
▁take	-9.38498
▁Raman	-9.38541
▁π	-9.38573
order	-9.38619
=0	-9.38647
▁strategy	-9.38649
▁drop	-9.38711
▁extracted	-9.38817
▁During	-9.3882
▁radius	-9.38841
th	-9.38936
▁already	-9.39196
▁2,	-9.39369
▁polarization	-9.39434
▁sensitive	-9.39525
▁reached	-9.3963
▁early	-9.3964
▁activities	-9.39782
▁injection	-9.39789
▁gold	-9.3984
▁contains	-9.39849
▁Also	-9.39872
▁established	-9.40005
▁Eqs	-9.40041
▁post	-9.40095
▁salt	-9.40112
▁achieve	-9.40196
▁report	-9.40592
▁:	-9.406
▁metals	-9.40656
▁reason	-9.40702
▁investigation	-9.4073
▁left	-9.40895
▁probably	-9.41065
▁occurred	-9.41092
▁grid	-9.41102
▁pulse	-9.41135
−2	-9.41182
▁corrosion	-9.41322
▁technology	-9.41324
▁done	-9.41451
▁noise	-9.41465
▁Two	-9.4157
▁prior	-9.41598
▁frequencies	-9.41629
▁alloys	-9.41656
▁1.5	-9.41766
▁starting	-9.41769
▁slope	-9.42008
▁building	-9.42131
▁Ar	-9.42182
▁400	-9.42208
▁framework	-9.42242
▁defects	-9.42244
▁annealing	-9.42306
▁scanning	-9.42513
▁bonding	-9.42549
▁composites	-9.42568
▁assigned	-9.42618
2-	-9.42657
▁day	-9.42729
▁USA	-9.42796
▁forces	-9.4318
▁supported	-9.43227
▁vs	-9.43251
▁positions	-9.43508
cos	-9.43627
▁amorphous	-9.43727
▁specimen	-9.43798
▁view	-9.43809
▁location	-9.43909
▁importance	-9.44193
18	-9.44223
)(	-9.44295
▁rapid	-9.44365
▁basic	-9.44433
Ti	-9.44491
▁considering	-9.44549
▁six	-9.44714
▁viscosity	-9.44743
▁separated	-9.44756
▁enzyme	-9.4484
▁particularly	-9.45074
▁grains	-9.45106
▁extent	-9.45181
1−	-9.45229
▁deviation	-9.45315
▁excess	-9.45347
▁understanding	-9.45403
▁barrier	-9.45428
▁little	-9.4544
▁reducing	-9.45698
▁approximation	-9.45715
∑	-9.458
▁fit	-9.45804
▁alternative	-9.45859
▁No	-9.45864
▁chloride	-9.46012
▁recovery	-9.46072
▁kinetics	-9.46151
▁ω	-9.46169
▁gene	-9.46235
)]	-9.46253
▁relevant	-9.46287
▁steady	-9.46321
▁back	-9.46398
▁80	-9.46407
▁amino	-9.46423
50	-9.46552
▁third	-9.46713
▁mice	-9.46809
scale	-9.46845
▁right	-9.46906
▁(3	-9.46961
▁expansion	-9.46963
▁modulus	-9.46984
▁CDCl	-9.47031
▁tool	-9.47108
▁suggesting	-9.47209
▁exhibits	-9.47247
ψ	-9.47273
▁broad	-9.4733
▁working	-9.47425
▁discharge	-9.47503
1(	-9.47509
▁TEM	-9.47519
1)	-9.47585
▁Further	-9.47615
▁(3)	-9.4768
▁2).	-9.4784
▁great	-9.47952
max	-9.47959
▁demonstrate	-9.47994
▁versus	-9.47995
▁tensile	-9.4802
▁body	-9.48087
▁simulated	-9.48139
▁concrete	-9.48539
▁events	-9.48746
▁plot	-9.48786
▁always	-9.48953
▁hence	-9.48969
▁̇	-9.48992
▁distributions	-9.49212
▁stirred	-9.49281
▁composed	-9.49376
▁rise	-9.494
▁resonance	-9.49485
▁accurate	-9.49581
▁appear	-9.49612
▁decreasing	-9.49678
▁MPa	-9.49726
▁extended	-9.49858
▁commercial	-9.49887
▁represented	-9.49906
3),	-9.49912
▁angles	-9.50058
▁η	-9.5007
▁chromatography	-9.5011
▁decay	-9.50184
▁detector	-9.50536
)2	-9.50591
▁presents	-9.50636
▁sets	-9.50814
&	-9.50891
▁mixtures	-9.51029
▁again	-9.51043
free	-9.51079
▁;	-9.51474
▁computed	-9.51536
▁bound	-9.51614
▁kg	-9.51692
▁nonlinear	-9.51692
▁identical	-9.51751
▁comparable	-9.51804
×	-9.51911
▁parts	-9.52068
▁successfully	-9.52108
▁nearly	-9.52153
▁describe	-9.52172
of	-9.5226
▁earlier	-9.5235
▁CD	-9.52382
▁1.0	-9.52413
▁testing	-9.52593
▁heated	-9.52705
▁depending	-9.5304
▁filter	-9.53155
▁patients	-9.53293
▁modeling	-9.53343
▁enough	-9.53347
▁threshold	-9.53354
▁0.2	-9.53371
▁Note	-9.53407
▁solvents	-9.53595
▁regime	-9.53645
▁every	-9.53914
▁km	-9.53917
▁molar	-9.53921
▁desired	-9.54002
▁precipitation	-9.54008
▁tissue	-9.54045
▁dielectric	-9.54082
▁risk	-9.54162
13	-9.5433
▁Mo	-9.54339
▁OH	-9.54459
▁excited	-9.54646
▁path	-9.54651
▁10%	-9.54689
▁evaluation	-9.5475
sin	-9.54756
▁illustrated	-9.5478
▁precursor	-9.54837
▁calculate	-9.54844
▁grown	-9.54943
▁connected	-9.55104
▁plastic	-9.55214
∗	-9.55282
κ	-9.55409
▁sufficient	-9.55467
▁numbers	-9.55554
exp	-9.55698
▁unique	-9.5591
▁varying	-9.5592
▁demand	-9.55954
▁NPs	-9.55978
▁instead	-9.55989
▁waste	-9.55992
▁enhancement	-9.56044
▁variety	-9.56131
▁hot	-9.56185
▁seems	-9.56432
▁synthetic	-9.56753
▁etc	-9.56915
▁supply	-9.56933
▁fine	-9.57083
▁proton	-9.57136
▁exposed	-9.57152
▁methyl	-9.57294
▁led	-9.57398
▁shell	-9.57428
▁China	-9.57547
▁combustion	-9.57576
2−	-9.57599
▁attention	-9.57654
▁details	-9.57739
▁ice	-9.57888
▁apparent	-9.57948
▁generate	-9.58008
▁150	-9.58103
▁microstructure	-9.58128
▁transitions	-9.58157
▁optimized	-9.58167
▁note	-9.58244
▁MS	-9.58286
▁media	-9.58302
▁except	-9.58303
▁possibility	-9.58372
▁block	-9.58386
▁→	-9.5842
▁sampling	-9.58461
▁{	-9.58475
▁age	-9.58504
▁pair	-9.58642
▁Due	-9.58654
▁homogeneous	-9.58716
Mn	-9.58918
▁aromatic	-9.59015
▁improvement	-9.59202
▁property	-9.59211
▁typically	-9.59258
▁photo	-9.59304
▁though	-9.59354
▁square	-9.59406
▁inner	-9.59527
▁boundaries	-9.59578
▁interval	-9.59589
Γ	-9.59589
▁vapor	-9.59607
▁ones	-9.59635
▁ESI	-9.59745
1+	-9.59784
▁actual	-9.59815
—	-9.59891
▁modification	-9.60053
▁chamber	-9.60089
▁metallic	-9.6009
for	-9.60126
▁spectrometer	-9.60328
▁identify	-9.60445
▁computational	-9.60458
▁uncertainty	-9.60552
▁class	-9.60593
as	-9.60621
al	-9.60793
▁1000	-9.6085
▁carrier	-9.60919
▁percentage	-9.61149
▁distances	-9.61195
on	-9.6121
▁dye	-9.61283
▁distributed	-9.613
▁Bi	-9.61449
+1	-9.61456
▁prediction	-9.61488
▁pores	-9.61507
▁redox	-9.61942
▁off	-9.61954
▁cancer	-9.62005
▁entire	-9.62039
▁too	-9.62042
▁distinct	-9.62092
▁plants	-9.62105
▁phenomenon	-9.62167
▁promising	-9.62312
▁thick	-9.62436
▁balance	-9.62496
▁activated	-9.62502
▁experimentally	-9.62532
▁channels	-9.62722
▁costs	-9.6275
▁ambient	-9.62755
▁Each	-9.62871
▁chemistry	-9.62957
▁just	-9.62975
▁charged	-9.63041
▁errors	-9.63074
▁called	-9.63075
▁radical	-9.63178
▁responsible	-9.63197
▁melting	-9.63299
▁First	-9.63372
▁blue	-9.63492
▁microscope	-9.63522
ii	-9.63663
▁acetate	-9.63677
▁makes	-9.63781
▁moment	-9.63796
▁showing	-9.63846
▁gave	-9.63956
▁situ	-9.63964
▁contain	-9.64026
▁forming	-9.64158
▁feed	-9.6431
▁oxides	-9.64345
▁listed	-9.64774
▁porosity	-9.64778
▁Ref	-9.64849
▁takes	-9.64867
▁toward	-9.65038
▁objective	-9.65157
▁background	-9.65252
▁develop	-9.6533
▁electricity	-9.6538
▁dose	-9.65541
▁sections	-9.65637
▁cyclic	-9.65661
water	-9.65724
▁quantitative	-9.66032
▁agent	-9.66073
▁axial	-9.66092
▁coated	-9.6619
▁dimensions	-9.66199
▁rotation	-9.66291
▁kept	-9.663
▁solubility	-9.66317
▁slow	-9.6636
▁later	-9.66411
▁vibration	-9.66414
▁neutral	-9.66433
▁SiO	-9.66443
CN	-9.66451
▁mesh	-9.66575
▁instance	-9.666
▁coal	-9.66668
▁calibration	-9.66684
▁%	-9.66739
▁sensors	-9.66759
▁cathode	-9.66811
▁assay	-9.66819
▁industrial	-9.66868
▁findings	-9.66883
▁remaining	-9.66957
▁compare	-9.67065
▁culture	-9.67094
▁reach	-9.6717
▁essential	-9.6721
▁inter	-9.67307
▁statistical	-9.67568
▁year	-9.67917
▁management	-9.67924
20	-9.67927
▁tip	-9.67932
▁phosphate	-9.67936
▁La	-9.67941
rich	-9.67966
▁rapidly	-9.68039
▁avoid	-9.68414
▁doping	-9.68431
▁dominant	-9.68497
▁|	-9.68517
▁plates	-9.68534
▁whose	-9.68561
▁selection	-9.68675
▁imaging	-9.68802
Scheme	-9.69015
_	-9.69191
▁glucose	-9.69272
▁life	-9.69476
▁green	-9.69488
▁friction	-9.69507
▁So	-9.69701
▁practical	-9.69717
▁integrated	-9.69791
▁residue	-9.69851
▁existing	-9.69894
at	-9.69898
▁4-	-9.69957
▁densities	-9.69971
▁cation	-9.70002
▁interfacial	-9.70004
▁varied	-9.70042
▁remove	-9.70128
▁exist	-9.70138
▁2.5	-9.70172
▁plots	-9.70231
▁stresses	-9.7026
▁run	-9.70318
▁stretching	-9.70438
▁what	-9.70482
▁Some	-9.7049
▁mV	-9.70533
▁ranging	-9.70663
▁mobility	-9.7071
▁integration	-9.70869
▁causes	-9.70873
▁correspond	-9.70894
▁lithium	-9.70914
▁Ru	-9.70979
▁(10	-9.70981
▁pathway	-9.71077
▁law	-9.71108
▁differential	-9.7111
▁shifts	-9.71226
▁enhance	-9.71286
▁program	-9.71314
time	-9.71379
▁throughout	-9.71497
▁graphite	-9.71518
▁taking	-9.71559
▁coatings	-9.71659
▁lack	-9.71747
▁focus	-9.71857
▁play	-9.71878
̃	-9.71983
▁Ω	-9.72205
▁changed	-9.72233
▁17	-9.7231
▁existence	-9.72336
▁cations	-9.72351
▁anode	-9.7237
▁purpose	-9.72538
16	-9.72613
▁construction	-9.72719
▁outer	-9.7274
▁commonly	-9.72784
▁nucleation	-9.72845
▁un	-9.72989
▁responses	-9.72991
▁require	-9.7301
<	-9.73044
▁assumption	-9.73142
doped	-9.73158
dd	-9.73167
▁detail	-9.73168
▁reactive	-9.7326
▁plotted	-9.73268
▁hole	-9.73373
▁hydrophobic	-9.73373
▁fitting	-9.73563
15	-9.73593
▁fibers	-9.73603
▁(5	-9.73811
ion	-9.73978
▁polymerization	-9.73989
▁inhibition	-9.74039
▁absolute	-9.7408
characterization	-9.74125
▁estimation	-9.74195
temperature	-9.74278
@	-9.74364
▁understand	-9.74513
▁potentials	-9.74659
▁white	-9.74695
▁ca	-9.74727
▁concentrated	-9.74856
▁suspension	-9.74909
Na	-9.751
▁sum	-9.75146
▁semi	-9.75227
ij	-9.75293
▁Pb	-9.75476
▁poor	-9.7559
PO	-9.75645
methyl	-9.75693
▁predict	-9.75732
▁3).	-9.75777
▁19	-9.75807
▁depend	-9.7581
▁bias	-9.75939
▁selective	-9.75971
▁genes	-9.75996
▁obvious	-9.76006
▁bed	-9.76077
▁effectively	-9.7608
▁saturation	-9.76131
▁summarized	-9.76136
TiO	-9.76226
▁fabricated	-9.76289
▁explain	-9.76352
plane	-9.76356
▁purchased	-9.7636
▁3-	-9.76397
▁Cl	-9.76458
term	-9.76533
▁dissolution	-9.76562
▁purified	-9.76573
▁subjected	-9.76574
▁involving	-9.76588
▁dark	-9.76662
▁measuring	-9.76774
▁origin	-9.76792
▁Recently	-9.76922
er	-9.7703
▁namely	-9.7711
▁sediment	-9.7716
▁Similar	-9.77162
▁crystallization	-9.77183
▁nuclear	-9.77202
▁Another	-9.7722
▁Re	-9.77287
SiO	-9.77325
▁evaporation	-9.77333
ˆ	-9.77374
▁horizontal	-9.7746
▁maintained	-9.77582
▁published	-9.77627
▁scan	-9.77628
▁bending	-9.77639
▁blood	-9.77663
▁focused	-9.77739
▁formula	-9.7794
▁flat	-9.77944
▁wear	-9.77952
▁action	-9.78041
▁figure	-9.78257
▁matter	-9.78279
▁filtered	-9.7839
▁propagation	-9.78426
▁correlated	-9.78538
▁comparing	-9.78595
▁advantage	-9.78722
▁mA	-9.78736
▁directions	-9.78888
▁uptake	-9.78928
▁equipped	-9.79061
▁2)	-9.79062
▁adopted	-9.7907
▁cold	-9.79101
▁monitoring	-9.79151
▁includes	-9.79244
▁turn	-9.79399
▁making	-9.79487
▁contributions	-9.79516
▁laboratory	-9.7959
▁simultaneously	-9.79614
▁optimum	-9.79714
▁stages	-9.79878
▁IL	-9.80035
▁pairs	-9.80128
▁cut	-9.80189
▁description	-9.80233
▁procedures	-9.80241
▁70	-9.80251
Li	-9.80334
▁residues	-9.8036
▁networks	-9.80386
▁advantages	-9.80389
▁pump	-9.80422
▁agents	-9.805
▁derivative	-9.80518
Zn	-9.80555
▁compositions	-9.8068
▁contained	-9.80734
▁displayed	-9.80752
Φ	-9.8087
̄	-9.80904
▁stiffness	-9.80908
▁conduction	-9.80969
▁choice	-9.81035
▁gradually	-9.8123
▁defect	-9.81357
▁negligible	-9.81375
▁reports	-9.81518
▁needs	-9.81557
▁contribute	-9.81627
▁get	-9.81635
▁5%	-9.81697
text	-9.81719
▁2(	-9.81722
▁gain	-9.81779
▁fractions	-9.81822
▁roughness	-9.81921
.%	-9.81926
=(	-9.82102
▁implies	-9.82222
IR	-9.82225
▁250	-9.82375
▁Nevertheless	-9.82528
▁ensure	-9.82558
▁consequence	-9.82567
▁static	-9.82589
▁Additionally	-9.826
▁doped	-9.82644
▁concept	-9.82711
▁contents	-9.82727
▁flows	-9.82754
▁600	-9.82792
▁anion	-9.82833
▁separate	-9.82879
▁donor	-9.82888
▁Among	-9.82905
▁host	-9.82916
▁who	-9.82936
6,	-9.82961
▁adjacent	-9.8307
▁compression	-9.83082
▁Consequently	-9.83223
containing	-9.8327
▁reduces	-9.83343
▁More	-9.83351
▁considerable	-9.8337
▁extract	-9.83387
▁spherical	-9.83404
▁stored	-9.83464
▁accumulation	-9.8349
5,	-9.83495
▁fundamental	-9.83539
▁transferred	-9.83682
▁reasonable	-9.83704
▁context	-9.83706
▁assume	-9.83816
▁situation	-9.83832
▁hydrolysis	-9.83869
▁trans	-9.83994
▁permeability	-9.84093
▁(),	-9.84111
▁Indeed	-9.84134
▁manner	-9.8414
▁inlet	-9.84405
14	-9.84558
▁proportional	-9.84574
▁ether	-9.84609
▁),	-9.84679
1-	-9.84855
▁silver	-9.84906
▁color	-9.84919
▁conclusion	-9.84944
▁90	-9.8496
▁industry	-9.85048
▁Ce	-9.85054
▁concluded	-9.85198
=2	-9.8525
▁(4)	-9.85347
▁applying	-9.85361
▁confirm	-9.85493
▁observe	-9.85596
▁identification	-9.85618
▁limits	-9.85673
▁normalized	-9.85719
▁net	-9.85844
▁intensities	-9.85893
▁closed	-9.86037
dt	-9.86121
▁o	-9.86222
▁fault	-9.86252
60	-9.86303
Pt	-9.86309
▁largest	-9.86532
▁bio	-9.86692
▁Similarly	-9.86715
▁sulfur	-9.86735
▁120	-9.86755
▁adding	-9.86757
▁regression	-9.86759
-2-	-9.86873
fold	-9.8702
▁exists	-9.87053
▁duration	-9.87183
▁37	-9.87222
▁ideal	-9.87228
▁aluminum	-9.87545
▁remain	-9.87572
▁Under	-9.87624
▁nodes	-9.87717
▁lateral	-9.87726
mL	-9.87783
▁retention	-9.87962
▁divided	-9.87964
▁flame	-9.87971
▁evident	-9.87972
)−	-9.88154
▁methodology	-9.88211
▁alcohol	-9.88228
▁impedance	-9.88252
▁max	-9.88334
▁methane	-9.88358
▁partially	-9.88386
▁changing	-9.88397
Ag	-9.88416
▁faster	-9.88445
▁yet	-9.88452
ic	-9.88519
▁help	-9.88527
▁Several	-9.88622
▁consisting	-9.88763
▁front	-9.88888
with	-9.88939
▁nickel	-9.89012
▁waves	-9.89018
▁event	-9.89183
▁array	-9.8922
Me	-9.8934
▁tension	-9.89367
▁incubated	-9.89733
▁thermodynamic	-9.89778
▁stronger	-9.89819
▁fatigue	-9.89876
▁constructed	-9.89921
2–	-9.89967
di	-9.89982
▁deep	-9.89997
▁configurations	-9.90067
CD	-9.90069
▁examples	-9.90085
▁lengths	-9.90234
▁classical	-9.90239
▁domains	-9.90242
▁quartz	-9.90306
▁saturated	-9.90525
▁diagram	-9.90655
▁formulation	-9.9067
▁criteria	-9.90678
▁initially	-9.90679
▁III	-9.90693
▁utilized	-9.90693
▁Research	-9.90768
▁investigations	-9.90807
▁special	-9.90839
▁powders	-9.90916
▁stirring	-9.90962
▁peptide	-9.90967
kg	-9.91052
▁GO	-9.91367
▁tumor	-9.91416
▁cavity	-9.91446
▁easy	-9.91477
es	-9.91519
▁appeared	-9.9152
▁representative	-9.91544
▁reveal	-9.91678
where	-9.91932
▁transient	-9.91946
off	-9.92051
▁1(	-9.92067
▁slight	-9.92079
▁bar	-9.92111
▁0.3	-9.92139
field	-9.92168
▁substitution	-9.92169
▁involves	-9.92192
▁sp	-9.92341
equals	-9.92367
▁estimates	-9.9245
▁quantity	-9.92466
▁fitted	-9.92477
▁climate	-9.92489
▁electrostatic	-9.92514
▁sharp	-9.92632
▁35	-9.9273
▁opposite	-9.92738
0)	-9.92816
▁strains	-9.92938
▁dispersed	-9.93111
▁vary	-9.93152
ml	-9.93166
▁50%	-9.93223
▁economic	-9.93242
▁reveals	-9.93298
▁traditional	-9.93339
▁decision	-9.93339
▁true	-9.9336
▁GC	-9.93537
▁subsequently	-9.93603
▁affinity	-9.93627
▁CA	-9.93639
▁di	-9.93676
▁PL	-9.9368
▁constraints	-9.93738
-5	-9.93788
▁serum	-9.93802
▁market	-9.93818
▁SO	-9.93828
▁binary	-9.93858
▁XPS	-9.93895
▁repeated	-9.93915
ization	-9.93937
▁heavy	-9.93968
▁photocatalytic	-9.94018
▁carbonate	-9.94052
▁locations	-9.94123
▁define	-9.94195
▁incident	-9.9425
energy	-9.9434
▁cellular	-9.94388
▁rings	-9.94401
▁reactivity	-9.94432
▁cubic	-9.94549
▁exact	-9.94553
▁prevent	-9.94578
▁coverage	-9.94582
▁implemented	-9.94596
▁minor	-9.94775
▁sheet	-9.94784
▁hydroxyl	-9.94878
▁engineering	-9.94901
▁toluene	-9.95005
▁requirements	-9.95014
^	-9.95185
▁χ	-9.95282
▁black	-9.95348
▁stream	-9.95367
▁walls	-9.95383
▁narrow	-9.95424
▁cover	-9.95431
▁3,	-9.95564
▁lifetime	-9.95599
▁project	-9.95655
▁strategies	-9.95726
▁periods	-9.95727
4)	-9.95733
▁safety	-9.95734
▁vitro	-9.95747
▁phenomena	-9.95754
▁intrinsic	-9.95772
▁loop	-9.95776
▁magnetization	-9.95923
▁Sn	-9.95929
▁acidic	-9.95931
▁written	-9.95931
▁technologies	-9.95936
▁vivo	-9.95994
22	-9.96017
▁circuit	-9.96152
▁migration	-9.96164
▁perform	-9.964
▁others	-9.96489
▁fabrication	-9.96585
▁respective	-9.96587
▁polar	-9.96643
▁NaCl	-9.96652
▁capture	-9.96782
▁HCl	-9.96941
▁calcium	-9.97023
▁driving	-9.97107
▁melt	-9.97154
▁bacteria	-9.9716
▁measures	-9.97216
4+	-9.97238
▁inorganic	-9.97239
▁purification	-9.97255
▁pressures	-9.97267
▁yellow	-9.97316
▁capacitance	-9.97339
▁converted	-9.97402
▁providing	-9.97432
▁assessment	-9.97437
▁past	-9.9749
▁ranges	-9.97546
line	-9.9763
▁itself	-9.97642
▁assess	-9.97672
▁correction	-9.97729
▁orbital	-9.9785
▁determining	-9.97853
▁character	-9.97908
▁remained	-9.97915
▁adhesion	-9.97969
▁search	-9.97985
▁zinc	-9.97989
⋯	-9.98035
▁works	-9.98048
▁issue	-9.98102
▁fluctuations	-9.9811
▁subject	-9.98126
▁Most	-9.98163
>	-9.9817
▁planes	-9.98352
▁PC	-9.98403
▁But	-9.98421
▁attached	-9.9845
▁moisture	-9.98455
▁desorption	-9.98496
▁sequences	-9.9852
▁smooth	-9.98581
▁released	-9.98673
▁asymmetric	-9.98688
▁created	-9.98744
▁Cd	-9.98876
▁cooled	-9.98891
▁principle	-9.99021
▁lipid	-9.99078
▁predictions	-9.99153
▁•	-9.99166
▁symmetric	-9.99209
▁algorithms	-9.99273
χ	-9.99317
▁pathways	-9.99792
▁uses	-9.99799
▁reaches	-9.99865
▁mostly	-9.99923
▁variability	-10.0001
Cr	-10.0007
▁received	-10.0008
▁extremely	-10.001
▁surfactant	-10.0018
▁(100	-10.0031
▁price	-10.0032
▁influenced	-10.0032
▁thereby	-10.0041
▁assembly	-10.0042
Mo	-10.0061
layer	-10.0062
▁capillary	-10.0069
▁aggregation	-10.0073
▁radial	-10.0081
▁introduction	-10.0084
25	-10.0085
▁start	-10.0086
▁monitored	-10.0086
▁window	-10.009
▁correlations	-10.0095
ln	-10.0096
3/	-10.0101
▁atmospheric	-10.0115
▁gases	-10.0124
▁face	-10.0134
step	-10.0136
▁bone	-10.0141
▁greatly	-10.0146
▁Eu	-10.0148
▁act	-10.0153
▁follow	-10.0155
▁0.05	-10.016
▁hardness	-10.0167
▁HPLC	-10.0172
▁delivery	-10.0172
▁He	-10.0173
▁shorter	-10.0174
3-	-10.0183
▁sensing	-10.019
▁bubble	-10.0201
▁losses	-10.0205
yl	-10.0213
(1)	-10.0214
▁aggregates	-10.0218
▁finally	-10.022
▁oxidized	-10.0225
▁momentum	-10.0225
▁growing	-10.0227
▁solved	-10.0239
axis	-10.0241
xi	-10.0245
▁scenario	-10.0248
▁anions	-10.0248
▁electro	-10.025
▁perpendicular	-10.0255
®	-10.0257
▁induce	-10.0268
Br	-10.0271
▁aim	-10.0273
▁3(	-10.0276
▁covered	-10.0278
▁compressive	-10.029
▁Γ	-10.0304
▁route	-10.0334
▁Scheme	-10.0356
▁THF	-10.0358
specific	-10.0359
▁nanotubes	-10.0364
ally	-10.0367
▁beyond	-10.0367
▁node	-10.0378
▁map	-10.0379
▁food	-10.0396
▁discrete	-10.0407
▁DMSO	-10.0408
▁receptor	-10.0414
▁collection	-10.0415
▁edges	-10.0421
0.5	-10.0432
▁incorporated	-10.0432
▁purity	-10.0434
0(	-10.0451
▁pseudo	-10.0451
‐	-10.0459
▁drying	-10.0459
▁aspect	-10.0459
▁elemental	-10.046
one	-10.0464
▁800	-10.0465
▁former	-10.0471
▁considerably	-10.0481
▁scales	-10.0483
▁Ga	-10.0496
▁matrices	-10.0498
▁incorporation	-10.0507
▁instrument	-10.0514
▁localized	-10.0527
▁monomer	-10.0528
▁simply	-10.0531
▁21	-10.0533
▁kJ	-10.0533
▁issues	-10.0535
▁quantities	-10.0541
▁Gaussian	-10.0553
▁review	-10.0556
▁training	-10.0561
3):	-10.0567
▁Fourier	-10.057
Au	-10.0572
▁infrared	-10.0579
▁4).	-10.058
▁hours	-10.0585
▁code	-10.0592
ζ	-10.0592
Ar	-10.0595
▁Let	-10.0597
Sn	-10.0601
▁dimension	-10.0606
▁middle	-10.0615
▁blocks	-10.0629
▁readily	-10.0629
▁trace	-10.0642
▁adjusted	-10.0645
▁reliable	-10.0654
▁protons	-10.0654
▁resin	-10.0658
▁analysed	-10.0676
▁linked	-10.0681
▁reflection	-10.0686
▁0,	-10.0694
▁neutron	-10.07
▁Ba	-10.0701
▁reverse	-10.0702
▁Sr	-10.0703
▁course	-10.0707
▁moiety	-10.0714
▁surrounding	-10.0719
▁absorbance	-10.0724
▁48	-10.0725
▁1-	-10.0731
▁anisotropy	-10.0743
▁filled	-10.0744
21	-10.0748
▁finding	-10.0749
▁integral	-10.075
▁capability	-10.0751
▁rock	-10.0755
▁plays	-10.0758
▁hard	-10.0762
▁occurrence	-10.0763
mm	-10.0769
▁droplet	-10.078
▁(4	-10.0783
▁criterion	-10.0785
▁PBS	-10.0792
▁representation	-10.0796
▁summary	-10.0797
▁raw	-10.0797
▁sea	-10.0805
▁Ge	-10.0806
▁rule	-10.0816
▁dislocation	-10.0816
▁vibrational	-10.0819
▁dissociation	-10.0828
▁hypothesis	-10.0829
▁Besides	-10.0834
▁examine	-10.0837
▁fuzzy	-10.0845
▁land	-10.0845
17	-10.085
▁depicted	-10.0851
Ph	-10.0853
▁quasi	-10.0854
▁tubes	-10.0859
▁valence	-10.0859
▁detect	-10.0865
▁Ma	-10.0869
▁proved	-10.0872
-3	-10.0873
▁discussion	-10.0883
▁grade	-10.0884
▁nitrate	-10.0885
▁classification	-10.0889
▁resources	-10.089
▁consideration	-10.089
▁zones	-10.0893
7,	-10.0897
▁occurring	-10.0897
▁Japan	-10.0903
▁45	-10.0908
▁moderate	-10.0914
▁Compared	-10.0918
▁Interestingly	-10.0919
▁injected	-10.092
▁regarding	-10.0924
〉	-10.0933
▁convergence	-10.0933
▁spacing	-10.0951
▁shifted	-10.0961
▁onset	-10.0963
▁Germany	-10.0963
▁distilled	-10.0964
▁joint	-10.0966
▁away	-10.0978
▁varies	-10.0979
▁Data	-10.0979
▁closely	-10.098
▁angular	-10.098
▁transform	-10.0981
▁operator	-10.0981
▁cracks	-10.0982
▁log	-10.1
30	-10.1001
▁mobile	-10.1004
▁Other	-10.1005
▁PV	-10.1006
▁mineral	-10.1012
▁columns	-10.1014
▁deposits	-10.102
▁researchers	-10.1027
▁ordered	-10.103
▁diluted	-10.103
▁heterogeneous	-10.103
▁analyze	-10.1031
▁kind	-10.1037
▁referred	-10.1039
▁holes	-10.1047
pH	-10.1051
▁delay	-10.1055
▁semiconductor	-10.1073
▁became	-10.1074
▁radicals	-10.1084
▁PS	-10.1086
▁rpm	-10.1086
▁salts	-10.1093
°	-10.1098
▁reasons	-10.11
▁cement	-10.1104
▁bath	-10.1108
▁loads	-10.1111
▁crucial	-10.1113
▁chiral	-10.1118
▁allowing	-10.1121
▁slip	-10.1127
▁assuming	-10.1134
▁developing	-10.1136
▁planar	-10.1136
▁velocities	-10.1137
8,	-10.1148
level	-10.1154
▁amine	-10.1155
▁1%	-10.1161
▁outside	-10.1166
▁0.4	-10.1167
Se	-10.1168
▁unknown	-10.1172
▁alone	-10.1174
out	-10.1176
▁display	-10.118
▁kV	-10.1184
▁2.0	-10.1187
▁disease	-10.1189
▁DFT	-10.1195
▁loaded	-10.1196
▁successful	-10.1206
▁portion	-10.1207
▁0)	-10.1213
▁family	-10.1218
▁periodic	-10.1219
▁possibly	-10.123
▁attractive	-10.1243
▁extension	-10.1246
▁cellulose	-10.1248
3(	-10.1251
▁immediately	-10.1254
▁task	-10.1255
▁sintering	-10.1267
▁underlying	-10.1273
▁Information	-10.1276
▁implementation	-10.1278
▁interfaces	-10.1288
▁sufficiently	-10.1289
▁(5)	-10.1291
▁replaced	-10.1299
▁≈	-10.1306
(2)	-10.1308
▁supports	-10.1308
▁article	-10.1311
plus	-10.1321
≤	-10.1334
▁clinical	-10.134
▁acetone	-10.1342
▁assessed	-10.1344
▁coordinate	-10.1349
▁Fermi	-10.1355
▁definition	-10.1362
▁microwave	-10.1363
▁aspects	-10.1366
▁currently	-10.1371
▁steam	-10.1381
▁trends	-10.1381
▁capable	-10.1392
▁flexible	-10.14
▁Zr	-10.1413
▁alkyl	-10.1423
▁soluble	-10.1427
▁∼	-10.1439
▁clay	-10.1445
▁mono	-10.1448
▁31	-10.147
▁once	-10.1485
%)	-10.1487
▁solids	-10.1488
▁temporal	-10.1492
▁extensive	-10.1492
ity	-10.1496
=∑	-10.1501
▁alumina	-10.1508
▁variance	-10.152
▁precision	-10.1523
▁crude	-10.153
▁elevated	-10.1532
▁resistivity	-10.1547
▁computer	-10.1551
▁annual	-10.1552
▁counter	-10.1556
▁sulfate	-10.1557
IV	-10.1561
▁majority	-10.1567
▁controller	-10.1567
▁sediments	-10.1568
▁transverse	-10.1568
▁2000	-10.1575
▁(20	-10.1579
▁primarily	-10.1581
▁largely	-10.1583
▁FT	-10.1584
▁High	-10.1592
en	-10.1596
In	-10.16
▁wire	-10.1601
▁displays	-10.1608
▁environments	-10.1622
br	-10.1625
̂	-10.1628
▁calcd	-10.1629
section	-10.1631
▁zeolite	-10.1632
▁frame	-10.1637
▁movement	-10.1642
▁essentially	-10.1645
▁oxidative	-10.1646
▁relationships	-10.1648
▁rocks	-10.1649
▁recombination	-10.1651
▁coordinates	-10.1652
▁proportion	-10.1665
▁sheets	-10.1666
▁potentially	-10.1667
point	-10.1679
=−	-10.1683
▁treatments	-10.1685
▁forward	-10.1687
▁annealed	-10.1692
▁complexity	-10.1692
▁Found	-10.1703
▁cycling	-10.1705
Ru	-10.1707
Mg	-10.1712
▁reversible	-10.1714
▁appearance	-10.1715
▁demonstrates	-10.1721
lsq	-10.1731
▁dipole	-10.1732
▁precursors	-10.1734
▁intervals	-10.1738
▁solve	-10.1739
▁NaOH	-10.1741
▁incubation	-10.1745
▁modeled	-10.1751
▁wet	-10.1752
▁Three	-10.1756
rsqb	-10.1757
▁denotes	-10.1759
▁centers	-10.1778
▁FTIR	-10.1778
▁28	-10.1783
▁enzymes	-10.1809
CDCl	-10.1817
▁Results	-10.1824
▁splitting	-10.1834
▁cylinder	-10.1839
▁dominated	-10.1839
▁pronounced	-10.1843
shaped	-10.1853
▁fluorescent	-10.1856
▁empirical	-10.1859
▁ionization	-10.187
▁moving	-10.1874
▁beginning	-10.1874
▁titanium	-10.1875
▁slowly	-10.188
linear	-10.1882
▁scaling	-10.1885
▁benzene	-10.189
▁22	-10.1892
▁shapes	-10.1893
▁AFM	-10.1896
▁affects	-10.1897
cell	-10.1898
co	-10.1904
coated	-10.1907
▁currents	-10.192
▁soft	-10.1924
▁20%	-10.194
▁monolayer	-10.1943
▁produces	-10.1968
▁Their	-10.1972
▁∂	-10.1973
▁sand	-10.1979
▁1.2	-10.1998
▁robust	-10.1999
▁intense	-10.2
▁producing	-10.2004
▁create	-10.2009
▁0.01	-10.2019
▁root	-10.2025
▁nanoparticle	-10.2028
–1	-10.2031
▁Even	-10.2034
▁filtration	-10.2038
▁correct	-10.2039
SEM	-10.204
▁Supplementary	-10.2046
▁reliability	-10.2056
▁fresh	-10.2057
▁kcal	-10.206
ESI	-10.2062
▁Hg	-10.2062
▁template	-10.208
▁equipment	-10.2084
▁tools	-10.2089
▁quenching	-10.209
▁panel	-10.2099
▁ester	-10.2099
▁substantial	-10.21
▁platinum	-10.2113
▁driven	-10.2115
▁machine	-10.2116
▁battery	-10.2123
▁vehicle	-10.2129
▁4(	-10.2133
▁countries	-10.2145
▁ammonium	-10.2146
],	-10.215
▁conformation	-10.2151
Pd	-10.2158
by	-10.2163
▁condensation	-10.2163
▁giving	-10.2167
▁droplets	-10.2175
▁Despite	-10.2175
▁ammonia	-10.2179
▁photon	-10.2182
▁κ	-10.2186
▁superior	-10.2192
▁orbitals	-10.2198
▁fragments	-10.2201
(1	-10.2212
▁phenyl	-10.2215
▁bacterial	-10.2231
▁conclude	-10.2234
▁LC	-10.2236
▁penetration	-10.2249
▁ash	-10.2255
▁inverse	-10.2257
▁acquired	-10.2271
▁protocol	-10.2276
▁sorption	-10.2277
▁built	-10.2281
▁humidity	-10.2283
Ca	-10.2288
▁RNA	-10.2288
▁4,	-10.2298
▁alkaline	-10.2301
▁drugs	-10.2301
▁pyrolysis	-10.231
nm	-10.231
▁rigid	-10.2313
▁argon	-10.2322
▁Φ	-10.2324
▁vectors	-10.2325
▁circular	-10.2328
▁numerous	-10.2335
▁reagent	-10.2346
▁wastewater	-10.2353
▁ng	-10.2356
▁interpretation	-10.236
▁longitudinal	-10.2362
▁entropy	-10.2373
▁PEG	-10.2386
40	-10.2387
▁acetonitrile	-10.2391
▁maintain	-10.2404
▁arrangement	-10.2404
▁embedded	-10.2409
▁oriented	-10.2411
▁modelling	-10.2422
gel	-10.2426
related	-10.2435
▁ethyl	-10.2436
▁reagents	-10.2449
TM	-10.2449
Eq	-10.2452
▁Considering	-10.2453
▁carriers	-10.2455
▁differ	-10.2458
▁accordance	-10.246
▁impacts	-10.2477
▁100%	-10.248
▁head	-10.2481
▁ξ	-10.2483
vis	-10.2485
range	-10.2496
▁describes	-10.2513
▁access	-10.2518
▁terminal	-10.2522
▁practice	-10.253
▁ceramic	-10.2533
▁prepare	-10.2533
▁dual	-10.2536
▁stainless	-10.254
▁owing	-10.2544
9,	-10.2554
▁gate	-10.2561
▁hexagonal	-10.2562
▁substituted	-10.2564
▁dioxide	-10.2567
▁apply	-10.2568
▁setting	-10.2569
▁0.6	-10.2579
▁words	-10.2591
̇	-10.2605
▁overcome	-10.2606
▁limitations	-10.2609
▁characterize	-10.2622
▁reflected	-10.2625
▁hydrothermal	-10.2628
▁isotropic	-10.2643
▁luminescence	-10.2644
▁question	-10.2647
▁polymeric	-10.265
▁hollow	-10.2656
Re	-10.2658
19	-10.2667
▁University	-10.267
▁nanostructures	-10.268
)/	-10.2683
▁23	-10.2699
▁0.25	-10.2703
▁linearly	-10.2706
▁despite	-10.271
▁0.8	-10.2713
▁dense	-10.2722
▁diamond	-10.2722
▁averaged	-10.2727
▁memory	-10.2729
▁complicated	-10.2729
▁jet	-10.2732
▁controlling	-10.2734
▁eight	-10.2737
▁standards	-10.2738
▁approximate	-10.2738
▁regular	-10.2742
∼	-10.2748
▁severe	-10.2752
▁≤	-10.2754
▁PM	-10.2755
▁rare	-10.2755
24	-10.2756
▁antibody	-10.276
▁continuously	-10.2761
▁Following	-10.2766
=0,	-10.2767
▁association	-10.2778
▁mesoporous	-10.2787
▁systematic	-10.2798
▁operated	-10.2799
▁favorable	-10.2802
▁cobalt	-10.2805
▁consequently	-10.2805
▁Only	-10.2807
▁sol	-10.2812
▁engine	-10.2824
▁stationary	-10.2828
▁geometric	-10.2828
from	-10.283
▁sludge	-10.2835
▁cylindrical	-10.2836
▁accurately	-10.2851
▁Many	-10.2868
▁indeed	-10.2868
▁consisted	-10.2898
▁limiting	-10.2898
▁batch	-10.29
▁representing	-10.291
′′	-10.2912
▁cutting	-10.2922
▁explored	-10.2929
▁setup	-10.2941
▁spectroscopic	-10.2955
amino	-10.2957
▁CNTs	-10.296
−3	-10.2961
▁27	-10.2963
treated	-10.2979
▁promote	-10.2985
▁overlap	-10.2986
▁transformed	-10.2987
▁inhibitors	-10.299
▁extensively	-10.2999
▁reflect	-10.3003
Figs	-10.3014
VI	-10.3014
▁proper	-10.3019
▁scenarios	-10.3026
▁months	-10.3029
▁degrees	-10.303
▁module	-10.3038
2=	-10.3041
▁illustrates	-10.3042
▁damping	-10.3044
▁5-	-10.3047
▁outlet	-10.3049
}}	-10.3056
▁specified	-10.3064
▁otherwise	-10.3068
▁minimal	-10.3071
▁world	-10.3078
▁Me	-10.3079
▁mid	-10.3082
▁fluids	-10.3086
▁impurities	-10.3087
▁manufacturing	-10.3087
▁precipitate	-10.3098
▁effectiveness	-10.3107
▁coordinated	-10.3113
▁copolymer	-10.3121
▁simultaneous	-10.3134
▁interference	-10.3138
▁database	-10.3142
▁policy	-10.3143
▁mathematical	-10.3145
▁downstream	-10.3146
]+	-10.3154
▁hydrophilic	-10.3158
▁volumes	-10.316
▁sphere	-10.3162
▁packing	-10.3166
▁protection	-10.3167
▁sector	-10.3167
▁randomly	-10.3175
▁inhibitor	-10.3187
▁regard	-10.3205
▁daily	-10.3205
▁Chemical	-10.3205
▁tissues	-10.3207
▁segments	-10.321
▁That	-10.3212
▁controls	-10.3212
▁denoted	-10.3213
▁version	-10.3214
▁valid	-10.322
st	-10.3221
▁learning	-10.3232
▁operations	-10.3236
▁efforts	-10.3244
▁switching	-10.3246
Zr	-10.3251
▁maps	-10.3252
▁orders	-10.3259
▁interpreted	-10.326
▁Inc	-10.3261
▁GPa	-10.3262
▁improving	-10.3269
▁principal	-10.3274
▁specifically	-10.3281
▁charges	-10.3284
▁significance	-10.329
▁instability	-10.3291
▁vibrations	-10.3292
▁hydroxide	-10.3292
▁health	-10.3296
▁user	-10.3299
▁deviations	-10.33
electron	-10.33
shell	-10.3303
▁minimize	-10.3306
▁〈	-10.3313
▁cleavage	-10.3315
▁efficiently	-10.3315
▁(6)	-10.3316
▁basin	-10.3319
Bi	-10.3322
▁ms	-10.3336
▁Anal	-10.3345
▁goal	-10.3352
▁weights	-10.3352
▁possess	-10.3355
▁beams	-10.336
▁targets	-10.3365
▁700	-10.3365
1=	-10.3371
▁straight	-10.3373
an	-10.3377
▁abundance	-10.3381
right	-10.3386
+2	-10.3389
▁why	-10.3395
▁anodic	-10.3397
▁carbonyl	-10.34
▁And	-10.3411
▁5).	-10.3412
▁Ltd	-10.3417
▁preferred	-10.3426
▁yielded	-10.3427
▁kinds	-10.3429
▁toxicity	-10.3431
day	-10.3433
▁recovered	-10.3435
▁CV	-10.3437
▁verified	-10.3442
Ψ	-10.3443
▁tendency	-10.3446
▁marked	-10.3448
▁understood	-10.3451
log	-10.3452
▁conclusions	-10.3482
▁connection	-10.3483
phenyl	-10.3501
▁acceleration	-10.3503
▁DC	-10.3503
▁moments	-10.3505
▁furnace	-10.3522
▁Pa	-10.3525
∫	-10.3527
▁classes	-10.3528
▁tensor	-10.3537
?	-10.3539
Ga	-10.3549
▁overnight	-10.3554
▁availability	-10.3557
▁object	-10.3557
▁facilitate	-10.3559
▁introduce	-10.356
▁Se	-10.3564
▁rules	-10.357
▁uncertainties	-10.3572
-6	-10.3573
HT	-10.3578
▁stock	-10.3586
▁etching	-10.3588
▁HA	-10.36
†	-10.3601
▁date	-10.3601
▁rest	-10.3602
▁geometries	-10.3602
▁aggregate	-10.3606
▁similarity	-10.3608
▁solute	-10.3609
▁pulses	-10.3617
▁bridge	-10.3618
▁extra	-10.3619
▁glasses	-10.3621
defined	-10.3621
▁inclusion	-10.3623
▁3)	-10.3624
called	-10.3632
▁assumptions	-10.3635
▁unstable	-10.3637
▁rotational	-10.3638
▁centre	-10.3644
▁diffuse	-10.3646
▁diameters	-10.365
▁explanation	-10.3652
▁employing	-10.3653
▁propose	-10.3656
▁CF	-10.3661
Σ	-10.3664
▁late	-10.3664
⋅	-10.3666
Aldrich	-10.367
▁CNT	-10.3672
▁twice	-10.3677
▁nanowires	-10.3677
▁Hamiltonian	-10.3682
▁skin	-10.3683
▁clean	-10.3683
-1-	-10.3689
▁constraint	-10.3698
▁potassium	-10.37
†).	-10.3701
▁bearing	-10.3712
▁bis	-10.3719
▁reservoir	-10.373
▁SiC	-10.3731
▁explore	-10.3744
▁Given	-10.3744
▁Nb	-10.3752
▁mapping	-10.3753
As	-10.3763
▁ψ	-10.3781
liquid	-10.3784
1–	-10.3791
▁texture	-10.3791
▁simulate	-10.3798
▁somewhat	-10.3799
▁screening	-10.3803
(0)	-10.3808
▁parent	-10.3808
▁pipe	-10.3817
▁Sigma	-10.3818
′)	-10.382
▁renewable	-10.3822
▁tend	-10.3826
▁exponential	-10.3832
which	-10.3839
⩽	-10.3843
▁crystallinity	-10.3845
▁~	-10.3852
▁community	-10.3853
▁creep	-10.3855
)).	-10.3857
▁vortex	-10.3858
▁QDs	-10.3871
▁nominal	-10.3879
▁tri	-10.3887
▁discuss	-10.3893
▁fuels	-10.3905
▁accompanied	-10.3912
▁remarkable	-10.3916
▁abundant	-10.3918
▁curvature	-10.392
▁supplied	-10.3921
left	-10.3924
1/2	-10.3924
▁table	-10.3926
▁spectrometry	-10.3928
▁(50	-10.3946
▁requirement	-10.3949
▁Nd	-10.3951
▁susceptibility	-10.3958
▁service	-10.3959
▁differentiation	-10.3963
▁chemicals	-10.397
23	-10.3974
2).	-10.3975
▁brain	-10.3978
▁advanced	-10.398
▁validation	-10.3981
▁induction	-10.3984
▁frequently	-10.3987
▁Once	-10.3987
▁bi	-10.3988
▁acceptor	-10.3989
▁75	-10.3991
▁super	-10.3992
▁bonded	-10.3994
%,	-10.3999
▁Rh	-10.4001
▁erosion	-10.4007
▁peptides	-10.4009
▁dyes	-10.402
▁ascribed	-10.4036
▁Samples	-10.4039
metal	-10.4045
▁substantially	-10.4045
▁worth	-10.4051
▁vessel	-10.4058
▁anisotropic	-10.407
▁segment	-10.408
▁IV	-10.4087
▁processed	-10.409
known	-10.4102
▁candidate	-10.412
▁progress	-10.4122
▁precise	-10.4129
▁MD	-10.4134
▁vacancies	-10.4135
▁coarse	-10.414
-4	-10.4146
▁disorder	-10.4159
▁recognition	-10.4159
Te	-10.4168
▁opening	-10.4171
mediated	-10.4177
▁marine	-10.418
▁rich	-10.4187
RT	-10.419
▁sense	-10.4192
▁grow	-10.4199
▁genetic	-10.4204
▁3.5	-10.4214
crystallographic	-10.4219
▁simplified	-10.4219
▁move	-10.4222
-3-	-10.4225
▁isotope	-10.4228
▁efficiencies	-10.4229
▁classified	-10.4229
▁cis	-10.4232
▁social	-10.4241
▁AC	-10.4248
▁convection	-10.4254
▁NP	-10.4258
band	-10.427
▁occupied	-10.4281
▁compact	-10.4284
▁wavelengths	-10.4289
▁hysteresis	-10.4291
▁challenge	-10.4292
▁platform	-10.4295
▁elsewhere	-10.4298
▁construct	-10.43
▁history	-10.4309
▁fluxes	-10.4324
▁arrays	-10.4327
▁fragment	-10.433
▁benefits	-10.4338
▁restricted	-10.4338
▁enthalpy	-10.4339
▁RT	-10.4339
▁MW	-10.4352
▁applicable	-10.4359
▁dilution	-10.436
▁seem	-10.4363
▁ethylene	-10.4376
▁influences	-10.4382
XRD	-10.4387
▁expect	-10.4389
ca	-10.4391
▁regulation	-10.4392
▁phonon	-10.4405
▁modifications	-10.4406
Λ	-10.441
▁(400	-10.443
3−	-10.4433
▁separately	-10.4434
▁collision	-10.4436
▁batteries	-10.4439
▁drawn	-10.4441
▁react	-10.4445
derived	-10.4447
Supplementary	-10.4451
▁apparatus	-10.4451
▁sign	-10.4456
▁closer	-10.4456
▁cationic	-10.446
Pb	-10.4462
▁thermally	-10.4462
▁refractive	-10.4463
▁starts	-10.4466
▁95%	-10.4473
▁spread	-10.4487
▁box	-10.4491
▁urban	-10.4494
▁started	-10.4499
▁US	-10.4502
▁undergo	-10.4504
▁solving	-10.4505
▁bare	-10.4509
▁weeks	-10.4511
▁kHz	-10.4519
▁behaviors	-10.4531
▁idea	-10.4535
▁equiv	-10.4538
▁retained	-10.4539
±	-10.4546
▁liver	-10.4548
▁boron	-10.4548
▁impurity	-10.4555
▁refined	-10.4559
▁confirms	-10.4559
▁MA	-10.4567
▁EC	-10.4569
▁refinement	-10.4582
▁seven	-10.4585
▁address	-10.4589
▁yielding	-10.4599
▁animals	-10.4605
▁PA	-10.4611
▁establish	-10.4616
▁Yield	-10.4617
▁Ta	-10.4628
▁pyridine	-10.4633
Sr	-10.4636
▁30%	-10.4641
▁DMF	-10.4643
▁flexibility	-10.4644
▁intermolecular	-10.4656
▁stated	-10.4659
dx	-10.4667
▁Next	-10.467
▁conducting	-10.4672
▁ordering	-10.4675
▁relations	-10.468
wave	-10.4687
▁computation	-10.4688
▁acquisition	-10.4702
▁match	-10.4702
▁turbulent	-10.4719
CF	-10.472
▁runs	-10.472
▁conductive	-10.4721
].	-10.4723
▁mouse	-10.4728
▁technical	-10.4732
frequency	-10.4734
▁beneficial	-10.4735
▁BP	-10.4736
▁reaching	-10.4738
▁stabilization	-10.4739
▁oscillations	-10.4739
▁]	-10.4739
▁purposes	-10.4744
resolution	-10.4754
▁aging	-10.4757
▁individuals	-10.4758
▁interact	-10.4758
▁actually	-10.4763
▁wood	-10.4763
▁irradiated	-10.4764
▁enables	-10.4767
able	-10.4767
▁dimer	-10.477
▁summer	-10.4776
▁26	-10.4789
▁regional	-10.479
▁combinations	-10.4791
▁supporting	-10.4793
▁perovskite	-10.4797
▁corrected	-10.4798
▁experience	-10.48
▁minerals	-10.4801
▁coli	-10.4806
0+	-10.4806
▁extreme	-10.4807
▁intra	-10.4833
▁schemes	-10.4837
▁serve	-10.4842
▁hydrogenation	-10.4842
▁fatty	-10.485
▁utilization	-10.4852
▁quickly	-10.4852
▁sputtering	-10.4857
▁resolved	-10.4859
▁sliding	-10.4874
▁stacking	-10.4876
▁spheres	-10.488
▁deposit	-10.488
▁absorbed	-10.4881
▁fusion	-10.4893
▁exactly	-10.4898
▁inset	-10.4901
▁dimensionless	-10.4912
▁Of	-10.4913
′,	-10.4921
PF	-10.4924
▁effort	-10.4926
▁acoustic	-10.493
▁evaporated	-10.4933
▁CP	-10.4937
▁baseline	-10.4938
∞	-10.494
hydroxy	-10.4941
▁neural	-10.4942
▁deionized	-10.4947
▁tank	-10.4954
▁precipitates	-10.4959
▁oven	-10.4961
▁PCR	-10.4962
▁{\	-10.4966
▁intermediates	-10.4972
▁modulation	-10.4973
us	-10.4975
▁feedback	-10.4977
▁performances	-10.4988
▁foam	-10.4992
4/	-10.4993
▁objects	-10.4995
▁indices	-10.4996
▁analyzer	-10.4996
▁buildings	-10.5
▁(7)	-10.5003
▁denote	-10.5003
▁nuclei	-10.5008
+(	-10.5014
▁Model	-10.5021
de	-10.5027
▁feasible	-10.5039
▁sides	-10.5048
▁qualitative	-10.5054
▁link	-10.5056
▁hydration	-10.5056
▁generating	-10.5057
′(	-10.506
▁distortion	-10.5061
▁nor	-10.5062
▁arc	-10.5066
▁stabilized	-10.5066
is	-10.5072
▁insight	-10.508
▁spring	-10.5081
un	-10.5085
▁dislocations	-10.509
▁nanocomposites	-10.5097
▁survey	-10.5098
▁river	-10.5099
▁contacts	-10.5099
▁offer	-10.5103
▁inputs	-10.5107
▁rod	-10.5114
▁operational	-10.5115
▁causing	-10.5115
▁Supporting	-10.5115
▁HRMS	-10.5118
▁DSC	-10.5119
▁trap	-10.5121
▁decades	-10.5124
▁perturbation	-10.5125
▁statistically	-10.5126
▁bubbles	-10.5127
▁cracking	-10.5135
▁amide	-10.5142
▁ways	-10.5143
▁conservation	-10.5145
▁acetic	-10.5164
▁CS	-10.5165
▁generalized	-10.5169
▁liquids	-10.5179
▁29	-10.518
▁Reynolds	-10.5182
▁350	-10.519
▁populations	-10.5197
▁dissipation	-10.5205
▁Br	-10.5206
▁[].	-10.5209
▁concerning	-10.5215
▁communication	-10.5221
][	-10.5226
Nb	-10.5228
▁artificial	-10.5228
▁acts	-10.5233
▁muscle	-10.5234
well	-10.524
▁tree	-10.5244
▁90%	-10.5245
▁probes	-10.5247
▁Tables	-10.5248
▁3.0	-10.5249
▁extracts	-10.5249
iii	-10.5256
▁Generally	-10.5261
▁5(	-10.5266
▁passive	-10.5272
▁copolymers	-10.529
▁Meanwhile	-10.5291
▁native	-10.5299
▁involve	-10.5301
▁consist	-10.5302
▁inversion	-10.5304
▁catalysis	-10.5314
▁IC	-10.5315
▁drops	-10.5325
▁reflections	-10.5333
▁morphologies	-10.5333
▁camera	-10.534
▁preliminary	-10.5342
KBr	-10.5342
▁enable	-10.5343
▁seismic	-10.5345
▁Gd	-10.536
▁graph	-10.5364
▁split	-10.5368
▁0.7	-10.5374
▁hydraulic	-10.5377
▁architecture	-10.5381
▁record	-10.5387
▁faults	-10.539
▁Sea	-10.5392
▁steric	-10.5394
▁turbine	-10.5396
▁assays	-10.5397
re	-10.5398
▁(6	-10.5398
▁junction	-10.54
▁additive	-10.5403
▁Ph	-10.5411
▁CT	-10.5412
▁contrary	-10.5412
▁depletion	-10.5412
▁obtaining	-10.5413
▁turbulence	-10.542
▁verify	-10.5424
▁people	-10.5426
▁alignment	-10.5428
▁realized	-10.5429
▁alkali	-10.5431
▁microbial	-10.5434
▁contamination	-10.5436
▁macroscopic	-10.5444
▁shock	-10.5445
▁Second	-10.5446
3).	-10.5456
TEM	-10.5462
▁nanocrystals	-10.5468
▁obviously	-10.5475
▁papers	-10.5477
▁signaling	-10.5478
no	-10.548
workers	-10.5484
▁geometrical	-10.5486
▁own	-10.5489
▁members	-10.5503
▁1:1	-10.5506
▁expressions	-10.5515
▁illustrate	-10.5523
pectrophotometer	-10.5526
▁epoxy	-10.5533
▁proliferation	-10.5536
▁displacements	-10.5546
▁shallow	-10.5546
▁phenol	-10.555
▁UK	-10.5555
▁Pr	-10.5557
▁micelles	-10.5557
▁minutes	-10.5567
▁reflects	-10.5573
substituted	-10.5573
▁layered	-10.5585
▁105	-10.5592
▁roughly	-10.5593
▁ns	-10.5595
▁Accordingly	-10.5597
site	-10.5598
ation	-10.5598
▁colloidal	-10.56
bis	-10.5604
▁gravity	-10.5609
▁aryl	-10.5612
▁monomers	-10.5614
▁1),	-10.5615
‖	-10.5616
▁HF	-10.5619
▁32	-10.5627
▁insertion	-10.5629
▁ceramics	-10.563
butyl	-10.5631
▁80%	-10.5633
▁weaker	-10.5634
▁450	-10.5635
PS	-10.5638
28	-10.5638
▁thought	-10.5639
▁illumination	-10.564
	-10.5649
▁initiation	-10.5649
▁tends	-10.565
▁replacement	-10.5651
▁suspended	-10.5655
prepared	-10.5658
▁spot	-10.566
▁quantified	-10.5661
▁commercially	-10.5666
▁viscous	-10.5669
▁swelling	-10.5669
▁moieties	-10.567
▁fish	-10.5672
▁aligned	-10.5673
▁infinite	-10.5677
▁FE	-10.5688
flow	-10.5696
▁Before	-10.5702
▁analogous	-10.5704
▁rectangular	-10.5714
▁calculating	-10.5725
▁combining	-10.5728
▁ranged	-10.5732
▁desirable	-10.5741
▁break	-10.5742
100	-10.5744
▁digital	-10.5745
▁winter	-10.5747
▁centered	-10.5749
▁reconstruction	-10.5752
▁slower	-10.5753
▁lies	-10.5757
▁quantify	-10.5761
▁offers	-10.5772
▁backbone	-10.5772
▁plus	-10.5774
▁regarded	-10.578
▁believed	-10.578
3–	-10.5784
air	-10.5785
▁acceptable	-10.5793
▁spray	-10.5797
▁immobilized	-10.5797
▁attracted	-10.5802
▁reflectance	-10.5805
▁harmonic	-10.5809
▁neighboring	-10.581
▁transparent	-10.5818
▁acting	-10.5822
▁der	-10.5832
▁Energy	-10.5834
▁uniformly	-10.5834
PC	-10.5835
▁cathodic	-10.5838
▁waters	-10.584
▁singlet	-10.5848
▁toxic	-10.5849
▁negatively	-10.5852
▁180	-10.5852
surface	-10.5858
▁maintenance	-10.5861
▁gradients	-10.5867
▁localization	-10.5871
▁plateau	-10.5871
The	-10.5872
▁Bruker	-10.5879
▁ultra	-10.5882
Ce	-10.5883
6)	-10.5885
▁hardening	-10.5888
▁neurons	-10.589
▁fire	-10.5891
▁calibrated	-10.5893
▁isotopic	-10.59
▁stoichiometric	-10.5905
▁nanocomposite	-10.5906
26	-10.5915
▁ultrasonic	-10.5919
▁recognized	-10.5919
▁beads	-10.592
▁magnesium	-10.5921
▁basal	-10.5929
▁neglected	-10.5935
▁resource	-10.5942
strain	-10.5946
▁fibre	-10.5949
▁participants	-10.5952
▁SnO	-10.5954
2]	-10.5956
▁barriers	-10.5958
▁chitosan	-10.5959
▁diesel	-10.596
▁36	-10.5962
carbon	-10.5964
▁SC	-10.5978
▁charging	-10.598
▁pointed	-10.5989
▁performing	-10.5992
▁stochastic	-10.5993
▁quantification	-10.5997
▁indicator	-10.5999
▁National	-10.6
▁Subsequently	-10.6004
▁describing	-10.6006
▁(30	-10.6008
▁diffractometer	-10.6009
▁Different	-10.6011
▁isotherm	-10.6013
▁soils	-10.6013
▁2%	-10.6019
▁introducing	-10.6019
▁6,	-10.6024
(1−	-10.6029
▁receptors	-10.6033
▁comprehensive	-10.6035
▁arbitrary	-10.6037
▁pristine	-10.6041
▁River	-10.6043
+1)	-10.6043
▁dust	-10.6047
▁confined	-10.605
▁extend	-10.6051
▁animal	-10.6052
▁seed	-10.6058
▁Nature	-10.6061
▁(8)	-10.607
▁resultant	-10.6071
▁disk	-10.6072
▁substituents	-10.6082
▁900	-10.6097
Ge	-10.6097
%.	-10.6101
\	-10.6103
▁1.6	-10.6105
▁bridging	-10.6107
33	-10.6109
▁operators	-10.6122
▁cores	-10.6123
▁carboxylic	-10.6124
▁isomers	-10.6125
▁forest	-10.6126
▁broadening	-10.6135
La	-10.6139
solid	-10.6143
▁labeled	-10.6147
▁percent	-10.6148
27	-10.6154
▁public	-10.6156
▁numerically	-10.6157
▁visual	-10.6158
▁triplet	-10.616
▁North	-10.6164
▁mp	-10.6169
)2(	-10.6172
▁check	-10.6173
▁antibodies	-10.618
▁normally	-10.6183
▁ternary	-10.6186
▁stations	-10.6187
4-	-10.6203
▁put	-10.6207
▁volumetric	-10.621
▁electrolytes	-10.622
▁installed	-10.6228
▁TS	-10.6233
▁flask	-10.6235
▁analytes	-10.6238
▁RF	-10.6238
▁arise	-10.6241
▁ball	-10.6242
▁validated	-10.6248
▁perfect	-10.6252
▁fall	-10.6265
▁sintered	-10.6271
▁compute	-10.6273
▁generator	-10.6274
▁subjects	-10.6279
▁keep	-10.6282
▁adequate	-10.6283
▁Young	-10.6289
▁addressed	-10.6289
▁tunneling	-10.629
position	-10.629
▁(300	-10.6292
▁Analysis	-10.6296
▁cloud	-10.6297
▁chemically	-10.6302
ethyl	-10.6303
▁held	-10.6306
▁5.0	-10.6307
▁dataset	-10.6311
▁reactors	-10.6318
eff	-10.6321
▁packed	-10.6322
▁glycerol	-10.6331
▁vegetation	-10.6332
▁6).	-10.6336
▁intramolecular	-10.6336
▁isotherms	-10.6339
▁microscopic	-10.6343
▁package	-10.6346
▁trapped	-10.6349
▁boiling	-10.635
▁pass	-10.6355
▁meet	-10.6365
▁positively	-10.6371
▁satisfy	-10.6374
▁afford	-10.6381
▁took	-10.6382
▁Water	-10.6382
▁vol	-10.639
▁entry	-10.6395
▁lignin	-10.6398
▁station	-10.6398
▁conductance	-10.6405
▁analyte	-10.6431
▁40%	-10.6433
▁affecting	-10.6442
▁nM	-10.645
▁ferromagnetic	-10.6451
▁induces	-10.6452
▁Upon	-10.6452
▁morphological	-10.6454
hexane	-10.6456
▁Er	-10.6456
▁groundwater	-10.6456
▁diverse	-10.6464
▁disordered	-10.6464
▁million	-10.6477
▁completed	-10.6485
▁Its	-10.6487
▁statistics	-10.6494
less	-10.6498
▁immersed	-10.6502
not	-10.6506
▁lost	-10.6508
▁unchanged	-10.6509
▁confidence	-10.6509
▁55	-10.6511
▁planning	-10.6512
▁milling	-10.6514
cf	-10.6517
▁vacancy	-10.6519
▁keV	-10.652
▁conjugated	-10.6531
▁Previous	-10.6533
▁track	-10.6535
▁benefit	-10.6536
-8	-10.6541
▁sound	-10.6549
▁rats	-10.6551
▁van	-10.6553
▁hydrocarbons	-10.6553
▁rainfall	-10.6557
ness	-10.6559
▁washing	-10.6559
▁European	-10.6562
31	-10.6563
▁orientations	-10.6564
▁enzymatic	-10.6567
▁functionalized	-10.6569
▁interlayer	-10.657
70	-10.657
▁refer	-10.6576
▁independently	-10.658
▁traffic	-10.6587
▁physiological	-10.6588
▁MoS	-10.6591
▁mild	-10.6594
▁buckling	-10.661
▁northern	-10.6611
▁limitation	-10.6615
▁substances	-10.6616
eq	-10.6628
▁prices	-10.6634
▁projects	-10.6648
▁simplicity	-10.6649
▁leakage	-10.6658
▁phosphorus	-10.6665
▁vehicles	-10.6668
▁attempt	-10.6669
▁bind	-10.6693
▁earth	-10.6699
▁starch	-10.6701
▁paths	-10.6707
▁Cs	-10.6712
▁modern	-10.6716
▁figures	-10.6718
▁calcination	-10.6719
▁void	-10.6719
▁octahedral	-10.673
▁metabolic	-10.6734
▁dimensional	-10.6738
0=	-10.6743
▁Compound	-10.6745
▁ITO	-10.6748
▁smallest	-10.6749
▁Calcd	-10.6752
▁derive	-10.6754
▁intracellular	-10.6756
▁filling	-10.6756
▁know	-10.6763
▁Sb	-10.677
▁inhibited	-10.6771
▁capacities	-10.6773
▁aluminium	-10.6775
modified	-10.6779
▁diversity	-10.6786
(−	-10.6787
▁resonances	-10.6788
▁MgO	-10.6791
▁north	-10.6792
▁mounted	-10.6794
▁mole	-10.6796
−1),	-10.6796
▁peroxide	-10.68
▁similarly	-10.68
▁comes	-10.6802
∥	-10.681
▁blend	-10.6813
▁PP	-10.6813
▁bromide	-10.6818
▁rough	-10.6824
▁stem	-10.6831
▁indirect	-10.6832
red	-10.6836
▁NOx	-10.6841
▁hydrogel	-10.6843
▁1.8	-10.6846
▁vicinity	-10.6849
particle	-10.6851
▁4.5	-10.686
▁hydrocarbon	-10.6868
BF	-10.687
▁nanorods	-10.687
▁palladium	-10.6873
▁gels	-10.6889
ol	-10.6892
▁suppressed	-10.6892
▁running	-10.6893
▁tetra	-10.6894
▁leaching	-10.6896
▁survival	-10.69
▁Experimental	-10.6905
LYP	-10.6907
▁his	-10.6908
▁volatile	-10.6909
▁covalent	-10.691
▁monitor	-10.691
▁regeneration	-10.6926
end	-10.693
data	-10.6931
▁arising	-10.6931
▁blends	-10.6932
▁cultured	-10.6934
▁categories	-10.6937
▁Ir	-10.6938
▁realistic	-10.6942
▁build	-10.6943
▁pixel	-10.6945
▁2),	-10.6947
▁ends	-10.6948
▁attack	-10.6949
▁weighted	-10.695
▁macro	-10.6955
▁PI	-10.6969
▁HOMO	-10.6971
▁imposed	-10.6974
▁competitive	-10.6975
▁toughness	-10.6976
▁calcined	-10.6977
▁additives	-10.6982
▁elimination	-10.699
▁filters	-10.6991
▁ps	-10.6994
▁valuable	-10.7005
▁dramatically	-10.7006
▁0.9	-10.7007
▁picture	-10.701
▁freedom	-10.7015
▁scope	-10.7018
▁ten	-10.7018
sized	-10.702
▁hold	-10.7025
▁matching	-10.7026
▁pollution	-10.7026
▁noticed	-10.7028
pressure	-10.7032
▁inhibitory	-10.7036
▁thermo	-10.7038
▁adsorbent	-10.7039
(2	-10.7039
EI	-10.704
▁weakly	-10.7041
02	-10.7042
▁captured	-10.7043
▁deduced	-10.7044
▁situations	-10.7047
▁fossil	-10.705
▁circulation	-10.7055
▁rotating	-10.7064
▁New	-10.7064
NMR	-10.7065
▁pellets	-10.7069
▁chip	-10.707
▁De	-10.7073
▁arises	-10.7076
▁share	-10.708
▁scaffolds	-10.7084
▁CdS	-10.7087
▁resonant	-10.7088
▁powerful	-10.71
▁[(	-10.7102
▁southern	-10.7103
▁recommended	-10.7106
▁MeOH	-10.7107
▁upstream	-10.7107
▁6(	-10.7108
▁agree	-10.7111
▁interior	-10.7112
▁motor	-10.7118
▁comparisons	-10.712
▁1.4	-10.7125
Θ	-10.7128
▁hydrodynamic	-10.7131
▁drift	-10.7135
▁conformational	-10.7146
3)2	-10.7146
▁glycol	-10.7155
▁therapeutic	-10.7163
▁gaps	-10.7176
▁hexane	-10.7179
▁quantitatively	-10.7183
▁collagen	-10.7196
▁−1	-10.7197
▁enrichment	-10.7198
▁contributes	-10.7199
▁trajectory	-10.7212
▁expensive	-10.7213
▁utility	-10.7218
Cp	-10.7219
▁collapse	-10.7224
if	-10.7228
▁maximal	-10.7232
▁isolation	-10.7233
▁schematic	-10.7237
▁Appendix	-10.7238
hole	-10.7245
▁ultimate	-10.7248
▁carefully	-10.7255
▁eventually	-10.7263
▁usual	-10.7271
▁Monte	-10.7273
▁convenient	-10.7275
▁slurry	-10.7277
▁nearest	-10.7277
▁BSA	-10.7282
▁thicknesses	-10.7284
▁72	-10.7289
▁4.0	-10.7298
▁binder	-10.7303
▁couple	-10.7304
=[	-10.7304
▁behind	-10.7321
▁physics	-10.7325
▁coastal	-10.7327
∕	-10.733
▁afforded	-10.7332
▁polycrystalline	-10.7336
▁incidence	-10.7342
▁death	-10.7345
5)	-10.7348
▁competition	-10.7348
▁7.5	-10.7349
▁slab	-10.735
▁predominantly	-10.7352
−1).	-10.7355
▁1.3	-10.7365
▁amplitudes	-10.7372
▁MC	-10.7382
▁come	-10.7385
▁ML	-10.7393
▁2.2	-10.7394
▁fed	-10.7395
▁determines	-10.7395
transfer	-10.7395
▁potent	-10.7396
▁leaves	-10.7402
▁NiO	-10.7405
-15	-10.7408
▁apoptosis	-10.741
▁sampled	-10.7416
▁alcohols	-10.7416
▁therapy	-10.7432
▁photoelectron	-10.7435
▁accumulated	-10.7436
▁(9)	-10.7437
://	-10.7442
38	-10.7449
▁MO	-10.7452
▁transportation	-10.7452
▁wild	-10.7454
80	-10.7454
▁South	-10.7455
ɛ	-10.746
▁users	-10.7462
▁pretreatment	-10.7467
▁tunnel	-10.7469
▁south	-10.7471
▁distinguish	-10.7475
▁CeO	-10.7482
▁newly	-10.7486
▁increment	-10.7487
▁oscillation	-10.7491
▁AA	-10.7498
▁SDS	-10.7506
▁gauge	-10.7512
▁attachment	-10.7516
▁depths	-10.752
▁exponent	-10.752
▁success	-10.7523
▁status	-10.7527
▁ages	-10.7532
▁consumed	-10.7533
▁let	-10.7533
▁infection	-10.7536
▁elongation	-10.7538
▁metabolism	-10.754
▁successive	-10.7542
▁anhydrous	-10.7542
▁chloroform	-10.7546
▁inhibit	-10.7551
-4-	-10.7553
(3)	-10.7556
▁contributed	-10.7556
▁valve	-10.7557
▁journals	-10.7558
▁diseases	-10.7558
▁viability	-10.7559
▁isomer	-10.756
▁sealed	-10.7561
▁CB	-10.7561
▁bilayer	-10.7562
▁65	-10.7567
▁anionic	-10.7569
▁0.02	-10.7573
▁continued	-10.7577
▁GA	-10.758
▁dichloromethane	-10.7586
▁studying	-10.7592
▁hierarchical	-10.7593
▁productivity	-10.7599
▁challenges	-10.76
▁coherent	-10.7611
▁kW	-10.7614
▁reacted	-10.7621
-7	-10.7627
▁mix	-10.7629
▁accessible	-10.7638
▁tracking	-10.7642
▁inert	-10.7657
▁maxima	-10.767
▁4)	-10.7682
▁centrifugation	-10.7683
▁exciton	-10.7693
▁scans	-10.7698
▁altered	-10.7711
▁recycling	-10.7714
▁branch	-10.7714
▁clustering	-10.7719
▁axes	-10.7721
ate	-10.7723
▁PE	-10.7724
ħ	-10.7725
34	-10.7726
▁analyzing	-10.7726
32	-10.773
▁improves	-10.7748
▁eliminate	-10.7752
▁tolerance	-10.7753
▁pixels	-10.7756
▁sustainable	-10.7761
▁voltammetry	-10.7764
▁satisfactory	-10.7766
▁partly	-10.7767
▁evidenced	-10.7767
▁drive	-10.777
▁CuO	-10.7771
▁NF	-10.7771
▁collector	-10.7775
linked	-10.7786
GC	-10.779
▁trapping	-10.7791
▁exceeds	-10.7792
▁constrained	-10.7795
▁theoretically	-10.7799
▁initiated	-10.7801
▁season	-10.7803
▁cultures	-10.7809
▁∑	-10.781
▁COD	-10.7811
MnO	-10.7812
▁Google	-10.7817
ring	-10.782
▁gaseous	-10.7822
-1,	-10.7823
▁drag	-10.783
▁diffusivity	-10.7833
▁locally	-10.7837
▁inherent	-10.7839
▁mutant	-10.7839
▁bars	-10.7843
▁explicit	-10.7844
▁fermentation	-10.7849
29	-10.785
▁sugar	-10.7854
▁SA	-10.7862
▁supernatant	-10.7866
▁foil	-10.787
▁tail	-10.7874
4(	-10.7876
rate	-10.7879
▁perspective	-10.7881
▁adaptive	-10.7881
▁SS	-10.7884
year	-10.7886
▁investment	-10.7886
▁1.1	-10.7892
▁pool	-10.7893
▁photons	-10.7896
▁straightforward	-10.7901
▁strengths	-10.7904
▁return	-10.7904
▁sulfide	-10.7906
um	-10.7908
▁microstructures	-10.7908
catalyzed	-10.791
)∂	-10.7916
▁generates	-10.7918
▁anatase	-10.7921
▁excluded	-10.7925
▁Within	-10.793
▁isothermal	-10.7931
▁loops	-10.7932
▁expanded	-10.7935
▁adhesive	-10.7938
PEG	-10.7939
assembly	-10.794
▁piezoelectric	-10.7943
▁polynomial	-10.7954
▁tetrahedral	-10.7957
such	-10.7958
▁believe	-10.7964
1/	-10.7969
▁choose	-10.797
▁speeds	-10.7973
▁eq	-10.7974
▁urea	-10.7981
▁110	-10.7985
▁Unfortunately	-10.7985
▁regardless	-10.7986
2.5	-10.7987
▁Overall	-10.799
▁GaN	-10.7993
▁≥	-10.7999
▁?>	-10.801
▁fairly	-10.8012
▁western	-10.8014
gas	-10.8024
▁exception	-10.8026
spin	-10.8026
▁System	-10.8031
▁TGA	-10.8039
∣	-10.8043
▁trials	-10.8048
size	-10.8058
▁vapour	-10.806
▁challenging	-10.8065
▁6-	-10.8067
(111)	-10.8067
▁ln	-10.8075
▁turned	-10.8076
▁Lewis	-10.8077
▁concern	-10.8078
▁continuum	-10.808
▁masses	-10.8088
▁nucleus	-10.8088
▁polarized	-10.8089
▁nanotube	-10.809
▁irreversible	-10.809
▁Scholar	-10.8092
▁directed	-10.8093
▁microspheres	-10.8093
▁10−3	-10.8096
▁ozone	-10.81
▁spots	-10.8108
▁naturally	-10.8108
▁superconducting	-10.8111
▁carbons	-10.8113
▁surfactants	-10.8115
▁accepted	-10.8118
▁eqn	-10.8119
▁slopes	-10.812
▁mRNA	-10.8125
▁effluent	-10.813
Eu	-10.8136
▁difficulty	-10.8141
▁stack	-10.8146
▁holds	-10.8147
▁transcription	-10.8152
▁joints	-10.8155
▁}	-10.8158
▁helium	-10.8159
▁Specifically	-10.8162
▁offset	-10.8164
▁silicate	-10.8168
▁distorted	-10.8171
−1;	-10.8171
▁proven	-10.8183
▁sequential	-10.8186
▁Carlo	-10.8196
stage	-10.8203
▁manganese	-10.8207
DMSO	-10.821
▁examination	-10.8212
▁(10)	-10.8212
▁fluctuation	-10.8217
▁centrifuged	-10.8221
▁validity	-10.8222
▁paste	-10.8225
▁indication	-10.8227
▁wider	-10.8228
▁flash	-10.823
▁triple	-10.8231
▁staining	-10.8239
▁improvements	-10.8239
▁meV	-10.8245
▁Formation	-10.8252
▁blank	-10.8254
ac	-10.8254
▁utilizing	-10.8257
▁regimes	-10.8258
▁voltages	-10.8259
▁106	-10.8266
▁Green	-10.8268
▁Poisson	-10.8275
▁70%	-10.8275
▁fluoride	-10.8276
ZnO	-10.8277
▁maintaining	-10.828
▁EPR	-10.8282
▁wafer	-10.8285
ei	-10.8286
▁mW	-10.8287
▁Te	-10.8291
Pr	-10.8292
▁satellite	-10.8296
sectional	-10.8296
▁constitutive	-10.8302
▁indicators	-10.8303
▁aerosol	-10.8305
▁refers	-10.8312
NP	-10.8316
▁neither	-10.8316
▁nanosheets	-10.8317
▁option	-10.8319
▁carry	-10.832
▁efficacy	-10.8325
▁enriched	-10.8326
▁quenched	-10.8326
▁BET	-10.8332
▁manufacturer	-10.8333
)].	-10.8336
▁round	-10.8337
36	-10.8337
▁ensemble	-10.8339
▁interacting	-10.8342
▁deformed	-10.8345
▁pollutants	-10.8353
▁removing	-10.8356
▁dots	-10.8365
▁complementary	-10.8368
▁mediated	-10.8372
▁hydrate	-10.8372
▁CHCl	-10.838
edge	-10.838
▁tungsten	-10.8381
▁0.15	-10.8386
)=∑	-10.8388
▁hour	-10.8391
▁PubMed	-10.8399
▁fourth	-10.8401
▁die	-10.8407
▁suppression	-10.8412
▁1/	-10.8413
Vis	-10.8422
▁enhances	-10.8423
▁precisely	-10.8425
▁prominent	-10.8425
tri	-10.8426
binding	-10.8428
▁enhancing	-10.8428
▁mercury	-10.843
▁60%	-10.843
▁inserted	-10.843
▁scientific	-10.8433
▁33	-10.8438
▁Instead	-10.8439
▁roles	-10.8444
▁evaluating	-10.8447
▁topological	-10.8449
▁polarity	-10.845
▁Recent	-10.8451
▁FA	-10.8451
▁tin	-10.8452
▁cumulative	-10.8452
_{	-10.8455
▁indicative	-10.8457
▁pro	-10.8464
▁(15	-10.8467
▁Scientific	-10.8467
▁margin	-10.8468
▁transformations	-10.8468
▁formulations	-10.8474
▁SP	-10.8482
▁necessarily	-10.8482
▁governing	-10.8486
▁radiative	-10.8487
▁flowing	-10.8487
▁living	-10.849
▁electromagnetic	-10.8493
▁steels	-10.85
▁St	-10.8506
▁candidates	-10.8507
▁immune	-10.8508
▁assembled	-10.8509
▁emitted	-10.8512
GO	-10.8516
▁(11)	-10.8524
⃗	-10.8527
▁biodiesel	-10.8529
▁prove	-10.8531
∇	-10.8532
▁trajectories	-10.8534
▁systematically	-10.8534
▁accounted	-10.8535
▁160	-10.8541
HCl	-10.8541
▁scaffold	-10.8545
-10	-10.855
▁administration	-10.8551
▁dynamical	-10.8561
▁104	-10.8564
DNA	-10.8566
▁Taking	-10.8567
▁PANI	-10.8575
▁accounts	-10.8578
▁confinement	-10.8578
▁exit	-10.8581
)|	-10.8584
▁hydrogels	-10.8589
▁iteration	-10.8596
▁ICP	-10.8597
▁Et	-10.8599
▁inferred	-10.8603
▁fragmentation	-10.8603
▁CE	-10.8603
▁(0.5	-10.8605
Sb	-10.8607
▁Th	-10.8612
▁nozzle	-10.8614
▁computing	-10.8616
▁amines	-10.8623
/(	-10.8627
▁methylene	-10.8631
▁HP	-10.8635
〈	-10.8636
▁approximated	-10.8636
▁demonstrating	-10.8637
▁records	-10.8637
▁chromatographic	-10.8644
high	-10.8646
ers	-10.8646
▁fits	-10.8647
▁optimize	-10.865
▁6)	-10.865
▁list	-10.865
▁bodies	-10.8651
▁keeping	-10.8652
▁ignition	-10.8655
1),	-10.8655
▁feasibility	-10.8666
▁dilute	-10.8667
value	-10.8668
▁MB	-10.8671
▁deal	-10.8679
▁anaerobic	-10.8681
▁Bio	-10.8684
▁TG	-10.8685
▁virus	-10.8689
▁immersion	-10.8691
▁possesses	-10.8693
▁sometimes	-10.8701
▁77	-10.8704
▁wells	-10.8709
▁elevation	-10.871
▁2.4	-10.8712
▁faces	-10.8713
▁select	-10.8716
▁hydride	-10.8717
▁MP	-10.8718
▁ferrite	-10.872
Ta	-10.8721
▁multilayer	-10.8729
▁seasonal	-10.8732
ri	-10.8732
▁insulin	-10.8738
crystal	-10.8739
▁explicitly	-10.8746
Rh	-10.8748
1).	-10.8751
▁gradual	-10.8752
it	-10.8753
▁RH	-10.8754
▁emulsion	-10.8775
▁shells	-10.8777
▁scattered	-10.8778
▁permeation	-10.878
▁modules	-10.878
▁ArH	-10.8781
ik	-10.8782
▁reactants	-10.8786
35	-10.8787
▁detectors	-10.8791
▁topology	-10.8794
▁specificity	-10.8794
▁chromium	-10.8794
-1)	-10.8795
▁confirming	-10.8799
▁panels	-10.8802
▁7,	-10.8804
▁550	-10.8805
▁leaving	-10.8805
1.5	-10.8805
▁Wang	-10.8806
̲	-10.8811
▁compatible	-10.8814
▁targeted	-10.8814
▁protective	-10.8817
▁breakdown	-10.8819
44	-10.8826
▁deflection	-10.8832
▁diagrams	-10.8849
▁agricultural	-10.8856
)2]	-10.8865
way	-10.8866
▁·	-10.8867
dimethyl	-10.8869
_{\	-10.8869
▁accelerated	-10.887
▁radii	-10.8875
▁tuning	-10.888
▁increasingly	-10.8893
▁meaning	-10.8896
▁Aldrich	-10.8899
▁checked	-10.8909
4),	-10.8913
▁triangular	-10.8918
▁rolling	-10.8923
▁consecutive	-10.8924
▁virtual	-10.8924
▁broken	-10.8926
▁reactant	-10.8928
▁la	-10.8933
▁MnO	-10.8937
▁modelled	-10.894
▁reinforcement	-10.8942
▁segregation	-10.8945
▁projection	-10.8951
▁trial	-10.8952
bound	-10.8954
▁score	-10.8956
▁deeper	-10.8958
▁torque	-10.8962
▁easier	-10.8969
45	-10.897
▁fibres	-10.8974
▁Cell	-10.8979
▁coil	-10.8984
)3	-10.8985
▁Tb	-10.8991
▁(25	-10.8992
▁analogues	-10.8995
▁exceed	-10.8998
▁serious	-10.8999
assisted	-10.9004
chemical	-10.9007
▁Σ	-10.9008
▁WO	-10.9008
controlled	-10.9009
▁welding	-10.9016
▁Now	-10.9018
frac	-10.9018
▁orthogonal	-10.9019
▁road	-10.9023
▁questions	-10.9024
▁Tc	-10.9027
2+,	-10.9028
▁cast	-10.9029
▁Group	-10.9031
▁supramolecular	-10.9031
▁bright	-10.9032
▁meta	-10.9036
▁services	-10.9039
▁QD	-10.904
▁digestion	-10.9046
▁resistant	-10.9048
▁metabolites	-10.905
▁considerations	-10.905
▁crystallite	-10.9051
▁partition	-10.9053
▁satisfied	-10.9056
ui	-10.9058
▁ocean	-10.9064
▁spontaneous	-10.9074
▁ER	-10.908
UV	-10.9085
▁2.1	-10.9086
CA	-10.9087
▁concerns	-10.9087
′-	-10.9092
▁technological	-10.9093
ref	-10.9095
xj	-10.9095
▁promoted	-10.9101
ized	-10.9101
▁Type	-10.9102
CT	-10.9102
▁esters	-10.9103
▁mutation	-10.9105
▁Assuming	-10.911
▁never	-10.9114
▁breaking	-10.9115
0.8	-10.9116
▁ex	-10.9118
▁references	-10.9123
▁brown	-10.9125
▁companies	-10.913
▁islands	-10.913
▁transmittance	-10.9133
▁hyper	-10.9141
▁residence	-10.9141
▁CL	-10.9148
▁patient	-10.9148
nd	-10.9153
▁Sm	-10.916
chain	-10.9165
▁intact	-10.9167
▁KOH	-10.9169
▁floor	-10.9169
▁saline	-10.9181
▁applicability	-10.9183
▁assignment	-10.9187
▁pellet	-10.9187
▁overlapping	-10.9191
00	-10.9193
mg	-10.9194
▁properly	-10.9196
▁operate	-10.9197
driven	-10.9203
▁rat	-10.9204
=12	-10.9206
▁(0	-10.9208
▁ζ	-10.9209
▁Λ	-10.9217
space	-10.9218
ex	-10.9222
▁selectively	-10.9224
▁precipitated	-10.9224
▁irregular	-10.9225
▁concepts	-10.9226
▁34	-10.9229
▁8.0	-10.9229
▁covering	-10.923
▁traces	-10.9231
▁nutrient	-10.9231
▁Cp	-10.9243
▁salinity	-10.9246
side	-10.9246
▁reproducibility	-10.9249
▁(8	-10.9252
▁AB	-10.9252
▁140	-10.9256
▁doses	-10.9256
▁absent	-10.9262
▁25%	-10.9264
▁10−4	-10.9266
▁GaAs	-10.9267
low	-10.9268
discharge	-10.9268
▁reasonably	-10.9269
▁Institute	-10.9274
▁decline	-10.9274
▁achieving	-10.9282
▁quadratic	-10.9282
▁7).	-10.9283
▁rubber	-10.9284
▁cleaning	-10.9288
▁tetragonal	-10.929
base	-10.9295
▁constituents	-10.9305
▁motions	-10.9306
▁amplification	-10.9307
non	-10.9309
▁untreated	-10.9311
≈	-10.9311
▁molten	-10.9312
▁science	-10.9318
▁screen	-10.9329
▁—	-10.9331
▁dopant	-10.9332
▁hydro	-10.9336
treatment	-10.9343
SiC	-10.9354
▁suspensions	-10.9366
▁polished	-10.937
ab	-10.9372
▁convective	-10.9373
▁lie	-10.9374
▁experienced	-10.9374
▁photocurrent	-10.938
▁bases	-10.938
▁blocking	-10.9381
53	-10.9381
▁ZrO	-10.9387
▁qualitatively	-10.9388
ite	-10.9397
Sigma	-10.9397
▁3),	-10.9398
/2	-10.9399
▁CN	-10.9401
AB	-10.9403
▁fractional	-10.9406
▁modify	-10.9407
▁Langmuir	-10.9414
▁row	-10.9415
▁creation	-10.9422
▁imply	-10.9422
▁stoichiometry	-10.9422
▁(0.1	-10.9424
down	-10.9426
▁facile	-10.9428
=0.	-10.943
▁1.7	-10.943
▁elasticity	-10.9435
▁orange	-10.9441
▁curing	-10.9441
▁voids	-10.9442
▁failed	-10.9443
▁industries	-10.9449
▁15%	-10.945
▁averaging	-10.9459
▁financial	-10.9463
▁ɛ	-10.9465
▁actions	-10.9466
▁substituent	-10.9472
0.2	-10.9472
▁attempts	-10.9481
▁accomplished	-10.9484
▁discovery	-10.9484
▁outcome	-10.9485
▁creating	-10.9485
▁nanofibers	-10.9488
▁mirror	-10.9491
▁Instruments	-10.9494
PA	-10.9497
body	-10.9501
▁agrees	-10.9505
▁poorly	-10.9506
▁incorporating	-10.9508
▁photovoltaic	-10.9509
=4	-10.952
▁aforementioned	-10.9523
▁7(	-10.9524
▁markers	-10.9528
▁attenuation	-10.9533
about	-10.9533
▁passing	-10.9535
▁iso	-10.9537
ph	-10.9537
▁discrepancy	-10.954
▁proof	-10.9541
▁undergoes	-10.955
▁vanadium	-10.9554
▁instantaneous	-10.9562
▁carbide	-10.9563
▁3%	-10.9563
▁crop	-10.9564
▁tasks	-10.9566
amine	-10.9566
▁vacuo	-10.9578
component	-10.9582
▁characterised	-10.9587
▁initio	-10.9591
▁implying	-10.9591
▁PVA	-10.9593
▁lamp	-10.9594
▁nine	-10.9602
▁formulated	-10.9602
▁nanoscale	-10.9605
▁pulsed	-10.9605
▁corrections	-10.9607
▁casting	-10.961
▁equally	-10.9613
▁inclusions	-10.9616
▁targeting	-10.9617
▁predicting	-10.9618
▁Again	-10.9622
ni	-10.9623
▁synthesize	-10.9624
▁GHz	-10.9624
▁hybridization	-10.9625
▁char	-10.963
▁designs	-10.9632
▁stimulation	-10.9641
▁PDMS	-10.9641
▁lens	-10.9644
▁reinforced	-10.9645
▁old	-10.9648
▁cytotoxicity	-10.9649
▁immobilization	-10.9651
▁Yb	-10.9653
CS	-10.9654
▁objectives	-10.9654
iv	-10.9656
▁Unlike	-10.9659
▁ATP	-10.9676
▁gamma	-10.9681
▁(12)	-10.9684
ene	-10.9686
terminal	-10.9688
▁difficulties	-10.9689
py	-10.9691
▁spinel	-10.9694
▁unity	-10.9695
▁microstructural	-10.9712
▁(;	-10.9717
poly	-10.9717
▁capabilities	-10.9723
OCH	-10.9728
▁fly	-10.9728
▁passed	-10.9733
▁proceeds	-10.9733
▁validate	-10.9735
▁1200	-10.9737
▁semiconductors	-10.9737
▁grinding	-10.9737
▁Prior	-10.9743
▁Hall	-10.9744
bi	-10.9749
▁micrographs	-10.9749
▁BC	-10.975
Th	-10.9753
▁heterogeneity	-10.9755
▁detectable	-10.9755
peak	-10.9756
−(	-10.9756
▁predominant	-10.9757
▁Case	-10.9758
▁named	-10.9759
▁weld	-10.9761
▁focusing	-10.9765
)],	-10.9766
▁PMMA	-10.9766
▁implications	-10.9768
▁moves	-10.9776
▁colour	-10.978
▁3.2	-10.9782
”,	-10.9784
▁preserved	-10.9787
▁shrinkage	-10.9788
▁Firstly	-10.979
▁exhibiting	-10.979
▁diagonal	-10.9799
▁ka	-10.9799
▁aliphatic	-10.98
(1+	-10.98
▁AD	-10.9805
MA	-10.9806
▁Various	-10.9807
▁Four	-10.9811
▁governed	-10.9813
▁lung	-10.982
AC	-10.9824
▁presumably	-10.9825
▁zeolites	-10.9826
▁conjugate	-10.9828
▁facility	-10.9828
bond	-10.9829
▁chlorine	-10.9829
▁preference	-10.983
EC	-10.983
▁95	-10.9834
2;	-10.9835
▁spatially	-10.9838
4)2	-10.984
▁MeV	-10.9847
▁functionality	-10.9853
▁titration	-10.9854
▁principles	-10.9855
hotoluminescence	-10.9857
vs	-10.9858
▁practically	-10.9864
▁median	-10.9873
▁herein	-10.9881
▁themselves	-10.9887
▁energetic	-10.9888
▁ROS	-10.9889
ppm	-10.9889
▁CC	-10.9896
▁routes	-10.99
▁̅	-10.9904
▁usage	-10.9906
▁SI	-10.9913
▁extinction	-10.9919
▁proximity	-10.992
▁leaf	-10.9921
▁settings	-10.9922
▁corner	-10.9924
Π	-10.9933
▁excitations	-10.9936
▁cone	-10.9937
▁attributes	-10.9938
▁span	-10.9938
▁cleaned	-10.9939
▁pumping	-10.9946
ethylene	-10.9951
▁glassy	-10.9954
▁mantle	-10.9958
▁complexation	-10.9958
▁rotor	-10.9959
▁recording	-10.9959
HA	-10.996
▁carboxylate	-10.9961
90	-10.9962
▁week	-10.9963
▁Comparing	-10.9968
▁elution	-10.997
▁antioxidant	-10.9971
PL	-10.9979
▁acidity	-10.998
▁compares	-10.9981
all	-10.9981
ntiferromagnetic	-10.9985
▁ablation	-10.9992
mean	-10.9995
▁Di	-11.0003
65	-11.0004
▁7.4	-11.0017
▁yeast	-11.0019
▁Briefly	-11.0023
▁country	-11.0025
▁Over	-11.0029
▁concerned	-11.0032
▁spins	-11.0034
WO	-11.0035
▁fashion	-11.0037
▁topography	-11.0037
▁protected	-11.0039
▁injury	-11.0041
SS	-11.0042
▁dispersive	-11.0042
▁Waals	-11.005
▁variants	-11.0054
▁PET	-11.0055
▁island	-11.0057
▁aimed	-11.0058
▁switch	-11.0058
▁apparently	-11.0064
▁fouling	-11.0066
▁category	-11.0069
▁kDa	-11.0071
▁4%	-11.0075
▁5.5	-11.0077
▁dimers	-11.0078
+∑	-11.0078
▁catalyzed	-11.0079
▁SF	-11.0079
▁petroleum	-11.0081
▁exergy	-11.0081
pi	-11.0082
light	-11.0089
▁(500	-11.0092
⁡	-11.0101
▁streams	-11.0107
▁firstly	-11.0108
▁national	-11.0109
▁differs	-11.0109
▁unless	-11.0112
▁explains	-11.0118
▁wires	-11.0119
film	-11.012
▁kPa	-11.0129
▁Obviously	-11.0129
▁remarkably	-11.0131
test	-11.0131
bpy	-11.0132
▁rinsed	-11.014
▁raised	-11.0145
▁alter	-11.0152
▁comparative	-11.016
▁healthy	-11.0165
▁Step	-11.0171
▁scalar	-11.0173
electrode	-11.0174
2:	-11.0177
▁adopt	-11.0182
positive	-11.0182
▁predicts	-11.0186
▁government	-11.0196
▁eastern	-11.0197
▁Da	-11.0199
membered	-11.0202
▁exchanger	-11.0203
▁lowering	-11.0209
▁options	-11.0209
form	-11.0213
▁phenolic	-11.0213
tr	-11.0215
▁delivered	-11.0217
▁lot	-11.0222
▁adapted	-11.0229
▁noticeable	-11.0232
▁reviewed	-11.0232
▁130	-11.0236
▁interstitial	-11.0239
▁298	-11.0241
▁meter	-11.0244
▁lipids	-11.0248
▁Basin	-11.0252
▁shoulder	-11.0252
▁decomposed	-11.0254
▁(13)	-11.0255
TS	-11.0264
▁spite	-11.0268
▁comprised	-11.027
▁TM	-11.0277
▁attribute	-11.0281
▁solidification	-11.0282
▁universal	-11.0284
▁integrating	-11.0285
▁empty	-11.0286
▁LUMO	-11.0287
▁particulate	-11.0288
▁para	-11.0288
▁member	-11.029
▁KCl	-11.029
▁asymmetry	-11.0291
▁paramagnetic	-11.0298
▁preferential	-11.0298
▁phosphorylation	-11.0304
▁Micro	-11.031
▁proceed	-11.0315
▁Sc	-11.0317
▁38	-11.032
▁promoter	-11.0336
▁0.1%	-11.0341
▁programs	-11.0342
▁mutations	-11.0345
▁highlighted	-11.0345
▁noting	-11.0347
id	-11.0347
CP	-11.0349
▁insufficient	-11.035
▁feeding	-11.035
▁perhaps	-11.0351
▁NCs	-11.0359
▁communities	-11.0361
3/2	-11.0363
▁degraded	-11.0373
▁stabilize	-11.0377
PPh	-11.0378
▁RE	-11.0382
▁porphyrin	-11.0383
▁TC	-11.0386
▁outputs	-11.0387
▁brine	-11.0389
▁Coulomb	-11.0389
▁volcanic	-11.0393
▁*	-11.0397
0−	-11.0402
▁Cells	-11.0404
density	-11.0412
▁(200	-11.0412
▁mechanics	-11.0414
▁thoroughly	-11.0415
▁implantation	-11.0415
▁entirely	-11.0415
▁aged	-11.0421
)}	-11.0422
▁fill	-11.0425
▁consistency	-11.0428
hand	-11.0431
atom	-11.0433
▁regulatory	-11.0439
mode	-11.0442
▁AM	-11.0442
▁imaginary	-11.0443
▁nanowire	-11.0446
▁(1),	-11.0447
crystalline	-11.045
▁seawater	-11.0453
▁CI	-11.0454
Ba	-11.0455
Et	-11.0459
▁6.5	-11.0461
▁interpolation	-11.0465
▁spreading	-11.047
▁1,2-	-11.0472
▁intensive	-11.0473
▁brittle	-11.0475
oxide	-11.0476
▁stretch	-11.048
▁cavities	-11.0487
▁identity	-11.0489
▁NC	-11.0493
▁brief	-11.0494
rs	-11.0494
▁Surface	-11.0501
▁robustness	-11.0502
▁crust	-11.0504
▁identifying	-11.0505
▁medical	-11.0507
▁disturbance	-11.0509
▁Nafion	-11.0513
”.	-11.0516
▁enantioselectiv	-11.0519
▁Total	-11.0519
▁mismatch	-11.0519
eV	-11.0523
▁documented	-11.0524
▁diode	-11.0524
)–(	-11.0526
▁marker	-11.0526
▁austenite	-11.0533
▁predictive	-11.0534
▁exothermic	-11.0535
⟩	-11.0536
PE	-11.0536
▁debris	-11.0537
▁organization	-11.0547
▁monoclinic	-11.0548
xy	-11.055
▁HNO	-11.0551
▁kinase	-11.0552
▁capital	-11.0552
▁([	-11.0553
IC	-11.0556
▁EDS	-11.0557
▁Tris	-11.0557
▁warm	-11.0557
▁crossover	-11.0563
▁India	-11.0563
PP	-11.0564
▁squares	-11.0564
▁helical	-11.0567
▁calcite	-11.0567
▁mortar	-11.057
▁estimating	-11.0575
▁$$	-11.0575
▁oils	-11.0575
▁exclusively	-11.0575
▁Ψ	-11.058
▁lake	-11.0587
ci	-11.0591
▁125	-11.0591
▁subset	-11.0597
▁continental	-11.0597
▁burning	-11.0599
▁say	-11.06
▁dd	-11.06
▁shelf	-11.0606
▁go	-11.061
▁bandwidth	-11.0612
▁eliminated	-11.0613
▁exhaust	-11.0618
▁Europe	-11.0621
▁diethyl	-11.0624
▁inspection	-11.0627
NPs	-11.0633
▁timing	-11.0633
▁unusual	-11.0635
▁ET	-11.0635
▁protonated	-11.0636
▁reversed	-11.0636
loop	-11.0636
▁replace	-11.0638
▁frozen	-11.0639
▁contour	-11.0642
▁1,3-	-11.0652
▁PEO	-11.0653
▁mitochondrial	-11.0653
▁2.3	-11.0659
bonding	-11.0659
▁wetting	-11.0661
▁viable	-11.0662
▁5′-	-11.0665
▁extracellular	-11.0669
▁auto	-11.0669
▁HR	-11.0669
={	-11.0671
▁avoided	-11.0672
▁facilities	-11.0674
▁Chinese	-11.0674
▁MR	-11.0675
bonded	-11.0675
▁STM	-11.0677
Cs	-11.0677
▁dehydration	-11.0679
▁distinguished	-11.0682
01	-11.0685
tan	-11.0687
▁Refs	-11.0691
▁carrying	-11.0692
NC	-11.0694
=3	-11.0697
3;	-11.07
▁decade	-11.0704
Ir	-11.0705
▁90°	-11.0709
▁care	-11.0713
resolved	-11.0715
▁comprising	-11.0717
▁filler	-11.0717
▁Herein	-11.0725
IL	-11.0727
▁NW	-11.0728
▁plan	-11.0732
▁probabilities	-11.0734
▁branches	-11.0745
AA	-11.0747
▁parametric	-11.0748
▁GB	-11.0751
▁originally	-11.0751
▁invariant	-11.0752
▁integrity	-11.0753
▁greatest	-11.0753
▁uniaxial	-11.0758
▁missing	-11.076
▁scaled	-11.076
me	-11.0767
▁Science	-11.0768
▁urine	-11.0777
▁insights	-11.0779
▁popular	-11.0783
▁85	-11.0785
▁instruments	-11.0791
▁metastable	-11.0792
ti	-11.0797
▁consequences	-11.0799
▁correlate	-11.0801
▁demands	-11.0804
▁assumes	-11.0809
▁indentation	-11.081
▁structured	-11.0814
▁outlined	-11.0824
▁twin	-11.083
exchange	-11.0832
▁HT	-11.0837
mass	-11.0837
▁2010	-11.0838
▁organisms	-11.0839
▁datasets	-11.0842
▁correctly	-11.0842
matrix	-11.0846
▁organized	-11.085
▁matched	-11.0851
angle	-11.0854
oil	-11.0856
▁(40	-11.0857
▁preferentially	-11.0857
▁continue	-11.0859
sample	-11.0862
▁OCH	-11.0869
▁investigating	-11.0873
▁discovered	-11.0874
▁sedimentary	-11.0874
▁impossible	-11.0875
VO	-11.0879
▁10−5	-11.088
▁look	-11.0881
▁loadings	-11.0882
▁remote	-11.0894
▁heart	-11.0895
▁adaptation	-11.0904
▁contributing	-11.0906
▁weather	-11.092
▁fold	-11.0925
▁rearrangement	-11.0928
entry	-11.0931
▁soot	-11.0932
▁unlikely	-11.0935
▁transported	-11.0937
▁tuned	-11.0938
▁intended	-11.0945
▁trade	-11.0952
▁7.2	-11.0952
▁plasmon	-11.0955
▁encountered	-11.0965
▁iodide	-11.0966
▁attained	-11.0971
▁read	-11.0977
▁vinyl	-11.0978
▁Poly	-11.098
▁des	-11.0986
▁stand	-11.0986
▁SD	-11.0993
▁repulsion	-11.0998
4−	-11.0999
▁arranged	-11.1001
▁prolonged	-11.1004
▁1/2	-11.1005
▁company	-11.1006
▁handling	-11.101
▁nitride	-11.1026
xx	-11.1031
▁ORR	-11.1034
▁Lu	-11.1035
▁WT	-11.1039
▁dc	-11.1041
▁aid	-11.1041
▁flexural	-11.1041
▁freeze	-11.1043
vi	-11.1048
▁replacing	-11.1048
▁gasification	-11.1052
▁enabled	-11.106
▁adiabatic	-11.1063
{1	-11.1063
▁policies	-11.1063
▁laminar	-11.1064
▁excessive	-11.1065
▁ortho	-11.1065
▁surprising	-11.1066
▁Clearly	-11.1077
▁belonging	-11.1081
▁alteration	-11.1082
3);	-11.1084
▁count	-11.1085
▁genome	-11.1085
▁regulated	-11.1087
▁he	-11.1088
PSS	-11.1088
▁connections	-11.1089
CNT	-11.1089
▁eigenvalues	-11.1091
▁3000	-11.1092
▁hydrated	-11.1093
▁fluorine	-11.1093
▁express	-11.1094
▁treat	-11.1094
▁7.0	-11.1096
over	-11.1098
▁forced	-11.1098
▁DA	-11.1103
▁condensed	-11.1103
TOF	-11.1103
▁disc	-11.1104
▁absorber	-11.1105
▁repair	-11.1106
▁polyethylene	-11.1109
▁adjusting	-11.1111
▁reproduce	-11.1119
▁diagnosis	-11.1119
▁colorless	-11.112
▁pitch	-11.1122
▁donors	-11.1123
▁PF	-11.1127
▁shall	-11.1128
▁rutile	-11.1128
▁ab	-11.1132
▁unlike	-11.1132
▁6.0	-11.1134
▁[1].	-11.1135
▁combine	-11.1137
▁briefly	-11.1138
▁iterative	-11.114
≡	-11.1141
▁brought	-11.1141
▁750	-11.1141
≠	-11.1143
=1,...,	-11.1144
▁(7	-11.1144
0.1	-11.1149
▁kernel	-11.1149
▁aldehyde	-11.1151
▁library	-11.1157
▁supplemented	-11.1157
▁guest	-11.1158
▁⩽	-11.1168
▁sweep	-11.1168
▁shaped	-11.1175
▁belong	-11.1178
▁permittivity	-11.1179
▁broader	-11.1179
active	-11.1185
4–	-11.1187
▁trees	-11.1187
▁0.45	-11.1193
▁markedly	-11.1193
man	-11.1197
▁designing	-11.1198
▁women	-11.1199
▁Earth	-11.12
▁ij	-11.1202
▁bounded	-11.1203
▁structurally	-11.1204
trans	-11.1205
▁reforming	-11.1209
▁AR	-11.1211
▁holder	-11.1214
sensitive	-11.1218
▁thiol	-11.1219
▁CFD	-11.1224
+)	-11.1224
▁marginal	-11.1231
▁SE	-11.1239
▁permeate	-11.124
▁∈	-11.1242
▁bovine	-11.1246
▁HS	-11.1249
▁windows	-11.125
▁analogue	-11.1252
5-	-11.126
▁asymptotic	-11.1262
el	-11.1264
▁machining	-11.1266
▁incomplete	-11.1268
▁seeds	-11.1271
▁64	-11.1272
CB	-11.1273
▁convert	-11.1273
ated	-11.1278
▁grids	-11.1281
▁fabricate	-11.1281
▁Technology	-11.1282
▁ruthenium	-11.1283
▁counting	-11.1284
▁filtering	-11.1286
independent	-11.1288
▁aims	-11.1289
He	-11.1292
48	-11.1294
▁ith	-11.1299
▁rods	-11.1303
bearing	-11.1305
▁heights	-11.1308
=∫	-11.1308
▁alternating	-11.1311
▁big	-11.1312
▁practices	-11.1316
▁strip	-11.1316
▁accounting	-11.1321
DFT	-11.1322
▁defining	-11.1323
>0	-11.1331
▁minima	-11.1332
▁blade	-11.1336
▁thicker	-11.1339
▁monolayers	-11.134
Cd	-11.1342
▁3.3	-11.1342
MeOH	-11.1342
▁scores	-11.1349
▁completion	-11.1352
isation	-11.1357
▁nanomaterials	-11.1357
57	-11.1358
▁consistently	-11.136
▁8,	-11.1361
▁CR	-11.1362
▁going	-11.1363
▁breast	-11.1366
ability	-11.1373
im	-11.1376
▁reflecting	-11.1386
▁dot	-11.1387
▁crossing	-11.1388
▁sustainability	-11.1389
▁(14)	-11.1389
situ	-11.1397
▁bigger	-11.14
including	-11.14
▁benzyl	-11.1402
▁projected	-11.1402
▁promotes	-11.1405
cr	-11.1412
▁computations	-11.1414
▁theories	-11.1417
▁jump	-11.1425
▁adjustment	-11.1425
▁collisions	-11.1425
▁ILs	-11.1429
▁Zhang	-11.1431
▁ductility	-11.1432
OD	-11.1436
▁PO	-11.1438
▁physically	-11.1441
▁decisions	-11.1447
▁Gibbs	-11.1448
▁coming	-11.1449
▁dramatic	-11.145
▁deactivation	-11.1451
CV	-11.1452
▁hopping	-11.1455
▁positioned	-11.1464
▁Thermal	-11.1465
▁travel	-11.1469
▁fewer	-11.1469
▁rice	-11.1476
▁polystyrene	-11.148
▁dB	-11.1483
▁650	-11.1491
▁satisfies	-11.1492
▁grafting	-11.1493
▁stands	-11.1495
▁alternatives	-11.1501
▁begins	-11.1501
55	-11.1504
▁martensite	-11.1509
▁city	-11.151
▁rank	-11.1513
channel	-11.1516
▁automatically	-11.1524
BN	-11.1525
⊥	-11.1526
▁encapsulated	-11.1527
▁undertaken	-11.153
▁FM	-11.1531
▁add	-11.1534
▁outcomes	-11.1536
▁crystallites	-11.1543
▁fused	-11.1546
▁apart	-11.1546
voltage	-11.1553
▁moved	-11.1554
▁metric	-11.1556
▁east	-11.1557
Bu	-11.1564
[(	-11.1574
▁NIR	-11.1575
▁plasticity	-11.1577
▁permanent	-11.1578
▁goes	-11.158
▁carboxyl	-11.1583
COOH	-11.1587
▁intercalation	-11.159
▁1500	-11.1591
cost	-11.1605
▁perfectly	-11.1605
▁cholesterol	-11.1608
▁comprises	-11.161
▁junctions	-11.1613
▁possibilities	-11.1614
▁humans	-11.162
linking	-11.1621
ia	-11.1622
▁CCD	-11.1623
(4)	-11.1624
▁played	-11.1626
▁International	-11.1626
75	-11.1628
▁considers	-11.163
▁widespread	-11.1638
oxidation	-11.1639
▁tidal	-11.164
desorption	-11.1641
▁indoor	-11.1643
▁granular	-11.1648
▁transmitted	-11.1649
▁pieces	-11.1653
▁PLA	-11.1653
ase	-11.1654
▁auxiliary	-11.1654
▁Sec	-11.1659
▁turns	-11.1665
▁totally	-11.1666
4]	-11.1667
▁MWCNTs	-11.1668
▁Low	-11.167
▁contraction	-11.1672
▁importantly	-11.1677
37	-11.1678
▁envelope	-11.1679
▁safe	-11.1679
▁attempted	-11.1683
▁bridges	-11.1685
(1-	-11.1689
▁conserved	-11.1691
▁rupture	-11.1697
▁scatter	-11.1705
ds	-11.1707
▁oscillator	-11.1708
′=	-11.1708
{\	-11.1711
kT	-11.1712
▁intersection	-11.1713
▁connecting	-11.1719
▁tumors	-11.1719
▁online	-11.1723
▁Laboratory	-11.1725
600	-11.173
▁gained	-11.1731
Ac	-11.1739
▁diagnostic	-11.1742
MT	-11.1748
▁Dy	-11.1748
▁progressive	-11.1749
▁ferroelectric	-11.1753
diffusion	-11.1755
▁favored	-11.1756
▁(9	-11.1761
▁EF	-11.1761
▁dm	-11.1762
▁reconstructed	-11.1763
▁ultrasound	-11.1767
org	-11.1772
▁insoluble	-11.1778
ecrystallization	-11.1779
▁noble	-11.1779
▁2011	-11.178
▁inflammatory	-11.1788
▁PEDOT	-11.1789
▁Single	-11.179
▁depicts	-11.1792
▁miR	-11.1793
▁dropwise	-11.1794
▁iterations	-11.1798
ian	-11.1801
▁items	-11.1801
▁meso	-11.1803
▁stimulated	-11.1805
▁hardly	-11.1809
▁surrounded	-11.1826
▁Alternatively	-11.1826
▁compensation	-11.1827
SR	-11.1828
▁dip	-11.1831
▁stained	-11.1833
▁Increasing	-11.1839
▁8).	-11.1841
Py	-11.1842
▁conformations	-11.1844
▁Additional	-11.1845
▁4.2	-11.1845
▁dimethyl	-11.1846
▁insulating	-11.1846
▁SERS	-11.1853
∘	-11.1854
▁purely	-11.1856
▁10−6	-11.1857
▁Though	-11.1857
▁microorganisms	-11.1858
▁extending	-11.1858
▁1,4-	-11.1859
▁passes	-11.1861
▁(111)	-11.1862
▁opportunity	-11.1864
▁reflux	-11.1872
deposited	-11.1874
sp	-11.188
▁progression	-11.1882
▁logic	-11.1882
▁signature	-11.1883
▁2.6	-11.1883
▁ee	-11.1888
▁fluence	-11.1888
▁2.8	-11.1889
▁geological	-11.1895
▁equals	-11.1897
▁favor	-11.19
▁eutectic	-11.1902
▁detecting	-11.1905
▁compressed	-11.1911
▁DS	-11.1912
▁focal	-11.1913
▁sectors	-11.1914
▁iodine	-11.1918
▁LS	-11.1919
▁Regarding	-11.192
COO	-11.1921
▁emerging	-11.1922
▁minimization	-11.1927
ai	-11.1928
▁employ	-11.1932
▁cap	-11.1934
▁implement	-11.194
▁competing	-11.1944
▁snow	-11.1944
▁summarizes	-11.1944
▁links	-11.1944
▁elongated	-11.1945
▁mining	-11.195
▁symmetrical	-11.1951
▁EDTA	-11.1952
▁0.04	-11.1952
▁0.75	-11.1954
Å	-11.1954
SA	-11.1954
▁44	-11.1962
▁cage	-11.1969
MB	-11.197
▁Through	-11.197
▁cutoff	-11.1972
▁inventory	-11.1978
▁JEOL	-11.1982
▁suppress	-11.1985
▁unsaturated	-11.1988
▁TA	-11.1991
uk	-11.1994
∗(	-11.1998
▁none	-11.2003
▁nitric	-11.2009
▁solely	-11.201
▁Conversely	-11.2011
▁(75	-11.2011
▁2009	-11.2014
▁helps	-11.2014
▁whilst	-11.2026
▁drastically	-11.2026
▁promoting	-11.2031
▁subsurface	-11.2033
▁photocatalyst	-11.2033
le	-11.2034
▁serves	-11.2035
labeled	-11.2036
▁treating	-11.2038
▁ID	-11.2039
▁Pro	-11.204
▁Mass	-11.2045
ki	-11.2049
Di	-11.2056
▁defines	-11.2058
▁75%	-11.2061
▁220	-11.2062
▁web	-11.2068
▁ha	-11.2068
▁closure	-11.2068
▁began	-11.2073
▁noteworthy	-11.2077
▁assemblies	-11.208
▁lowered	-11.2087
▁durability	-11.2092
+1,	-11.2095
▁ultimately	-11.2096
negative	-11.2097
▁240	-11.2099
▁orthorhombic	-11.2104
▁dropped	-11.2109
▁dashed	-11.2109
wall	-11.211
▁PCM	-11.2112
AgCl	-11.2113
▁(100)	-11.2115
fi	-11.2122
GA	-11.2128
▁(15)	-11.2131
▁supercritical	-11.2136
▁feedstock	-11.2136
▁Non	-11.2137
electrocatalytic	-11.2137
▁programming	-11.2138
▁mAh	-11.214
▁spaces	-11.2147
▁continues	-11.215
▁latent	-11.2151
▁interested	-11.2155
▁neat	-11.2161
▁valley	-11.2161
▁biochemical	-11.2165
▁CaO	-11.2166
▁2.7	-11.2169
AP	-11.2169
▁protocols	-11.217
▁8.5	-11.2171
ch	-11.2173
▁eluted	-11.2177
Im	-11.2179
▁Nano	-11.2184
∫0	-11.2185
▁needle	-11.2185
▁viewed	-11.2187
▁uncertain	-11.2187
▁coke	-11.2197
▁formal	-11.2198
▁rising	-11.2198
▁trigger	-11.2203
▁8(	-11.2203
▁dead	-11.2206
▁plume	-11.2211
▁codes	-11.2213
average	-11.222
▁extends	-11.2223
⊗	-11.2224
▁unclear	-11.2225
beam	-11.2225
length	-11.2226
▁magnet	-11.223
▁fractures	-11.2231
▁br	-11.2235
▁observable	-11.2238
▁roots	-11.2239
▁IgG	-11.2241
▁incorporate	-11.2242
▁Comparison	-11.2242
▁Carbon	-11.2245
phosphate	-11.2245
▁likelihood	-11.2245
▁1100	-11.2248
▁AP	-11.2248
per	-11.225
ne	-11.2261
▁upward	-11.2266
▁Chen	-11.2267
cycle	-11.2267
ES	-11.2269
▁flood	-11.227
▁evaporator	-11.2273
)=(	-11.2273
▁minimizing	-11.2274
▁prevents	-11.2277
▁stimuli	-11.2277
▁insulation	-11.2279
−1):	-11.228
▁damaged	-11.2282
▁month	-11.2284
▁topic	-11.229
▁tracer	-11.2297
▁000	-11.2298
direction	-11.2298
BM	-11.2298
▁highlight	-11.2299
▁entries	-11.2302
mechanical	-11.2302
▁constituent	-11.2305
5),	-11.2306
▁vesicles	-11.2308
dz	-11.2309
▁translation	-11.2314
▁vessels	-11.2315
loaded	-11.2319
▁grafted	-11.232
▁radio	-11.232
▁traps	-11.2326
▁destruction	-11.2327
▁Secondly	-11.2329
▁environmentally	-11.2329
▁probable	-11.2329
▁Whereas	-11.233
▁TE	-11.2331
model	-11.2333
▁sedimentation	-11.2336
▁Equation	-11.2341
▁Electron	-11.2343
grained	-11.2346
▁crosslinking	-11.2347
▁modal	-11.2349
▁compatibility	-11.235
▁constitute	-11.235
▁(2),	-11.2354
▁decided	-11.2356
▁older	-11.2358
▁devoted	-11.236
▁counts	-11.2361
▁0.03	-11.2364
41	-11.2367
rmogravimetric	-11.2368
▁exploited	-11.237
▁inertia	-11.2371
▁CVD	-11.2377
▁dependency	-11.2378
ta	-11.2378
▁templates	-11.2379
▁crystallized	-11.2381
▁earthquake	-11.2381
THF	-11.2384
▁\(	-11.2384
▁relevance	-11.2384
▁pharmaceutical	-11.2386
▁en	-11.2387
▁slag	-11.239
▁prototype	-11.2399
▁widths	-11.2401
▁agglomeration	-11.2406
cc	-11.2417
Tc	-11.2418
HF	-11.2422
▁business	-11.2422
▁generic	-11.2422
▁5)	-11.2422
▁enter	-11.2426
-41	-11.2427
▁peripheral	-11.2429
▁forcing	-11.2432
▁coherence	-11.2434
▁Figures	-11.2435
MP	-11.2435
4:	-11.2437
▁nanocrystalline	-11.2441
▁fractionation	-11.2448
▁heater	-11.2449
slip	-11.2451
benzene	-11.2457
ur	-11.2463
yi	-11.2466
▁reductions	-11.2469
▁endogenous	-11.2469
▁focuses	-11.2473
assembled	-11.2473
▁biofilm	-11.2473
group	-11.2476
▁minimized	-11.2478
▁∗	-11.248
1/3	-11.248
▁guide	-11.2484
▁Experiments	-11.2484
▁eluent	-11.2486
▁conjugation	-11.249
++	-11.249
▁holding	-11.2492
aq	-11.2494
▁Thermo	-11.2497
forming	-11.2508
▁United	-11.2512
top	-11.2512
▁discretization	-11.2513
▁conjunction	-11.2519
▁shielding	-11.2525
▁grows	-11.2527
▁mechanically	-11.2529
▁male	-11.253
▁accordingly	-11.2531
St	-11.2532
▁hetero	-11.2535
dr	-11.2535
▁ease	-11.2541
▁PD	-11.2543
zero	-11.2547
▁kit	-11.2548
▁contaminants	-11.255
▁oral	-11.2552
▁continuity	-11.2555
chloro	-11.2555
▁distillation	-11.2557
▁coalescence	-11.2562
▁circle	-11.2571
▁3.6	-11.2572
▁requiring	-11.2573
oxo	-11.2573
▁epitaxial	-11.2574
MoO	-11.258
▁wheel	-11.2585
-12	-11.2589
▁automatic	-11.259
art	-11.2592
▁anomalous	-11.2597
▁benchmark	-11.2597
▁facets	-11.2598
▁ordinary	-11.2598
3:	-11.2602
▁notable	-11.2602
▁uranium	-11.2604
▁blocked	-11.261
···	-11.2611
▁economy	-11.2611
▁electrolysis	-11.2612
▁103	-11.2612
▁El	-11.2616
▁developments	-11.2617
BP	-11.2628
▁fabric	-11.2631
▁0.5%	-11.2636
▁huge	-11.2636
▁frequent	-11.2637
PI	-11.264
▁http	-11.2645
▁evolved	-11.2646
▁Ln	-11.2646
▁oligomers	-11.2646
iso	-11.2651
▁fs	-11.2654
amide	-11.2657
▁elucidate	-11.2657
▁1.9	-11.266
total	-11.2662
▁CM	-11.2664
▁ref	-11.2664
▁dosage	-11.2667
sections	-11.2674
▁oxidant	-11.2679
DA	-11.2682
▁(%)	-11.2687
▁inhomogeneous	-11.2695
silica	-11.2695
▁nanostructured	-11.27
▁Elemental	-11.2702
▁Consider	-11.2702
▁RC	-11.2702
▁endothelial	-11.2702
▁pin	-11.2704
2)2	-11.2705
υ	-11.2706
▁becoming	-11.2707
▁facilitates	-11.2707
▁deformations	-11.2709
▁syringe	-11.271
▁spent	-11.2713
▁(16)	-11.2715
▁landscape	-11.2717
▁coast	-11.2719
▁2007	-11.2719
▁Be	-11.272
▁preventing	-11.2721
▁biogas	-11.2722
▁sandwich	-11.2722
NA	-11.2723
▁1–3	-11.2726
▁corresponded	-11.2728
▁lifetimes	-11.2729
▁international	-11.2737
3]	-11.2739
▁viral	-11.2742
300	-11.2742
▁frames	-11.2744
▁pilot	-11.2747
▁Notably	-11.2748
▁falls	-11.2751
▁arm	-11.2752
▁VO	-11.2757
▁progressively	-11.2758
▁curved	-11.2759
BO	-11.2759
ZrO	-11.276
▁label	-11.2764
▁fcc	-11.2765
▁disappeared	-11.2767
FA	-11.2768
▁recombinant	-11.2772
▁strongest	-11.2773
▁infiltration	-11.2774
▁ES	-11.2776
▁aperture	-11.2783
▁Technologies	-11.2788
5+	-11.2788
pyridine	-11.2789
▁tilt	-11.2799
▁aldehydes	-11.2808
SH	-11.2809
ton	-11.2809
▁Standard	-11.2813
▁SR	-11.2814
▁guidelines	-11.2817
▁France	-11.2821
▁automated	-11.2831
rd	-11.2832
▁Studies	-11.2837
▁Teflon	-11.2838
▁dominates	-11.2845
▁west	-11.2845
▁TLC	-11.2845
▁softening	-11.2846
)=1	-11.2847
▁EDX	-11.2849
▁file	-11.285
▁protonation	-11.2855
hydrogen	-11.2867
▁reacts	-11.2867
▁CdSe	-11.2872
▁solvation	-11.2872
▁FC	-11.2874
▁ignored	-11.2877
current	-11.2877
▁percentages	-11.288
▁creates	-11.2883
▁strictly	-11.2896
▁bring	-11.29
▁lesser	-11.2902
life	-11.2909
▁moduli	-11.2909
dried	-11.2909
▁plasmid	-11.2912
▁connectivity	-11.2914
soluble	-11.2917
71	-11.2917
Gd	-11.2918
▁protect	-11.2918
▁39	-11.292
▁Sample	-11.2924
LC	-11.2924
▁Bragg	-11.2925
=10	-11.2926
▁citrate	-11.2926
▁formic	-11.2927
▁motif	-11.2928
▁AF	-11.2928
Nd	-11.2928
▁clarify	-11.2928
VP	-11.293
▁susceptible	-11.293
▁Θ	-11.2933
▁risks	-11.2933
▁approximations	-11.2934
▁container	-11.2935
▁originating	-11.2936
▁beds	-11.2939
▁counterparts	-11.2944
▁updated	-11.2946
▁electronics	-11.2947
rmodynamically	-11.295
▁280	-11.2951
▁hidden	-11.2952
▁met	-11.2952
▁EL	-11.2953
▁robot	-11.2956
molecular	-11.2956
▁relies	-11.2957
▁zeta	-11.2963
▁ZnS	-11.2965
▁ventilation	-11.2968
▁DM	-11.2968
▁EU	-11.2969
▁monthly	-11.2972
▁linearity	-11.2973
▁rejection	-11.2974
▁belongs	-11.2974
▁Tg	-11.2974
▁Lake	-11.2974
FT	-11.2976
▁cascade	-11.2977
▁etched	-11.2978
▁MoO	-11.2979
▁anticipated	-11.2982
▁supposed	-11.2982
thick	-11.2982
▁emerged	-11.2986
volume	-11.2988
▁drainage	-11.2989
▁laws	-11.2991
▁stop	-11.2992
▁drivers	-11.2993
▁realize	-11.2994
▁synergistic	-11.2994
1,...,	-11.2996
▁entering	-11.2999
▁overview	-11.3002
▁spacer	-11.3011
▁8-	-11.3011
▁albumin	-11.3013
▁cool	-11.3014
▁selecting	-11.3016
▁antigen	-11.3017
▁integer	-11.3021
▁shared	-11.3024
▁SW	-11.3026
▁historical	-11.3031
42	-11.3035
▁doublet	-11.304
▁compositional	-11.3042
0.4	-11.3043
▁proportions	-11.3046
▁linker	-11.305
▁magnification	-11.305
/∂	-11.3051
▁antibacterial	-11.3052
▁reader	-11.3055
0.9	-11.3055
▁linkage	-11.3058
em	-11.3058
▁lamellar	-11.306
▁adduct	-11.3061
▁frameworks	-11.3062
▁microfluidic	-11.3068
▁7.	-11.3068
⁎	-11.307
XPS	-11.3072
▁acute	-11.3074
▁nucleophilic	-11.3075
▁filtrate	-11.3079
▁sequencing	-11.3081
▁titania	-11.3081
▁inflammation	-11.3083
▁fractal	-11.3087
▁certainly	-11.309
▁cyclization	-11.3094
TA	-11.3094
ities	-11.3097
▁reacting	-11.3098
▁homogeneity	-11.31
▁enabling	-11.3102
▁dissolving	-11.3102
▁tubular	-11.3102
▁advances	-11.3104
▁PVDF	-11.3107
filled	-11.3114
▁served	-11.3114
▁MCM	-11.312
wt	-11.312
aryl	-11.3121
▁Hydrogen	-11.3123
▁%)	-11.3125
▁AuNPs	-11.3125
▁condenser	-11.3128
▁ecological	-11.3131
AFM	-11.3131
▁variant	-11.3131
▁delayed	-11.3133
ad	-11.3133
▁covers	-11.3136
▁preparing	-11.3137
▁anomaly	-11.314
-100	-11.3141
▁tectonic	-11.3144
▁Perkin	-11.315
▁freshly	-11.3152
▁SOC	-11.3153
▁amplified	-11.3154
▁installation	-11.316
▁extrusion	-11.3161
▁anomalies	-11.3164
▁Boltzmann	-11.3166
▁stopped	-11.3173
organic	-11.3173
▁magnetite	-11.3173
▁resins	-11.3175
photon	-11.3181
0.6	-11.3184
▁car	-11.3189
uniform	-11.319
▁zirconia	-11.3192
orbit	-11.3196
▁vortices	-11.3202
▁2010).	-11.3205
≥	-11.3213
▁NWs	-11.3214
▁said	-11.3216
▁seeded	-11.3217
▁tangential	-11.322
▁advantageous	-11.3221
91	-11.3227
▁PVP	-11.3228
▁exploration	-11.3229
▁wavelet	-11.3238
▁tertiary	-11.3238
products	-11.3242
▁Typically	-11.3245
product	-11.3246
values	-11.3247
▁5000	-11.3249
▁Higher	-11.3251
▁LA	-11.3252
▁draw	-11.3252
▁ductile	-11.3255
▁centres	-11.3268
▁PCA	-11.3269
use	-11.3271
▁PEI	-11.3272
▁exceeded	-11.3273
▁Torr	-11.3274
▁format	-11.3275
RS	-11.3275
ant	-11.3278
▁freezing	-11.3283
▁quadrupole	-11.3283
structure	-11.3284
0.7	-11.3285
▁DOX	-11.3285
)∈	-11.3285
AR	-11.3287
▁climatic	-11.329
▁reproduced	-11.3295
39	-11.3295
▁permits	-11.3296
▁mineralization	-11.3298
▁0.10	-11.33
▁cylinders	-11.33
▁begin	-11.3302
▁adverse	-11.3303
OAc	-11.3305
▁Ho	-11.3306
▁prevented	-11.3308
▁impregnation	-11.331
▁mask	-11.3312
1;	-11.3314
core	-11.3314
▁master	-11.3315
▁Rb	-11.3316
▁dipolar	-11.3316
▁theorem	-11.332
▁partitioning	-11.3326
▁movements	-11.3328
km	-11.3329
▁instances	-11.3329
▁styrene	-11.3332
▁helpful	-11.3337
methoxy	-11.3343
▁3.1	-11.3344
▁210	-11.3347
▁wafers	-11.3348
▁vascular	-11.3349
▁write	-11.3349
▁unable	-11.335
▁immediate	-11.335
ak	-11.3351
▁DP	-11.3352
int	-11.3357
solvent	-11.3358
▁aggregated	-11.3362
▁century	-11.3362
▁utilize	-11.3366
▁argument	-11.3367
66	-11.3368
▁heterostructure	-11.337
▁(17)	-11.3374
SE	-11.3378
▁alloying	-11.3379
Rn	-11.3379
▁gasoline	-11.3382
▁syn	-11.3382
▁bit	-11.3385
▁May	-11.339
▁security	-11.3393
▁7.6	-11.3393
▁mind	-11.3394
▁gray	-11.3396
▁relate	-11.3397
▁RS	-11.3404
▁biosensor	-11.3404
▁molybdenum	-11.3407
▁isomerization	-11.3413
▁roof	-11.3413
▁infrastructure	-11.3415
▁EM	-11.3415
▁interpret	-11.3417
▁WC	-11.3423
▁magnitudes	-11.3423
ClO	-11.3424
only	-11.3424
▁savings	-11.3429
ine	-11.343
supported	-11.3431
▁implanted	-11.3432
▁ultraviolet	-11.3432
▁involvement	-11.3435
▁balanced	-11.3436
Ln	-11.344
▁vertically	-11.3441
▁derivation	-11.3443
▁harvested	-11.3444
▁42	-11.3445
▁stabilizing	-11.3446
▁schematically	-11.3449
▁kinematic	-11.345
▁indium	-11.3451
▁BF	-11.3451
▁endothermic	-11.3454
▁tight	-11.3456
▁conductivities	-11.3457
▁strengthening	-11.3458
RE	-11.3458
6]	-11.3459
▁recover	-11.3459
▁relaxed	-11.3461
▁domestic	-11.3462
▁DI	-11.3462
▁situated	-11.3463
polymer	-11.3465
▁reproducible	-11.3465
▁sharing	-11.3466
0.3	-11.3467
▁intercept	-11.3471
▁convex	-11.3475
▁2−	-11.348
▁suited	-11.3486
▁recycled	-11.3488
▁NS	-11.3488
▁undoped	-11.3494
▁6.8	-11.3494
200	-11.3495
▁reads	-11.3496
▁MAS	-11.3505
▁horizon	-11.3505
▁analog	-11.3505
▁Temperature	-11.3505
%),	-11.3507
▁folding	-11.3513
▁approved	-11.3514
▁receiver	-11.3515
-20	-11.3516
▁TiN	-11.3516
▁elementary	-11.3517
▁Late	-11.3519
▁adjust	-11.3521
▁IS	-11.3522
▁Western	-11.3522
▁handle	-11.3523
NN	-11.3526
▁originated	-11.3527
6-	-11.3527
▁ensures	-11.3529
▁nutrients	-11.353
▁downward	-11.3533
▁0.	-11.3534
te	-11.3535
ised	-11.3539
SP	-11.3542
▁versatile	-11.3544
wise	-11.3544
-9	-11.3545
Ts	-11.3546
▁advance	-11.3548
▁dealing	-11.355
▁massive	-11.3552
▁EIS	-11.3553
▁Where	-11.3558
},	-11.3559
56	-11.3563
▁sharply	-11.3563
▁author	-11.3564
+12	-11.3568
64	-11.3569
61	-11.3571
4).	-11.3572
▁warming	-11.3572
ligand	-11.3572
▁couplings	-11.3573
▁careful	-11.3574
▁routine	-11.358
speed	-11.3581
▁HO	-11.3581
▁influencing	-11.3581
10,	-11.359
▁restriction	-11.359
▁modulated	-11.3591
protein	-11.3594
▁[]	-11.3597
▁electrophoresis	-11.3598
▁binds	-11.3599
squares	-11.3601
synthesized	-11.3605
46	-11.3608
▁sink	-11.3616
▁inactive	-11.3616
▁viscoelastic	-11.3623
▁2011).	-11.3624
▁substituting	-11.3626
▁ST	-11.3628
▁applies	-11.3629
▁divergence	-11.363
▁inducing	-11.363
▁oxidizing	-11.363
▁maximize	-11.3631
▁designated	-11.3631
▁besides	-11.3634
▁behave	-11.3636
43	-11.3638
▁runoff	-11.3644
▁formaldehyde	-11.3649
▁ANN	-11.3649
green	-11.3656
▁States	-11.3661
functionalized	-11.3662
CI	-11.3662
tert	-11.367
▁assessing	-11.3673
▁2009).	-11.3674
▁mill	-11.3674
▁(12	-11.3676
▁tert	-11.3681
▁lanthanide	-11.3687
▁differently	-11.3689
▁arsenic	-11.3696
▁dominate	-11.3697
EF	-11.3701
▁2013	-11.3702
▁mature	-11.3703
epending	-11.3704
▁perturbations	-11.3704
▁wheat	-11.3705
inflammatory	-11.3707
▁96	-11.3708
age	-11.371
▁Measurements	-11.3711
▁lift	-11.3711
▁physicochemical	-11.3715
▁mutants	-11.3721
▁Ra	-11.3724
▁IP	-11.3725
▁What	-11.3725
▁torsion	-11.3729
CL	-11.3734
▁skeleton	-11.3737
=1,2,...,	-11.3739
▁train	-11.3739
▁uniformity	-11.3743
▁Australia	-11.3744
▁alpha	-11.3749
bromo	-11.3753
▁eye	-11.3761
▁1990	-11.3762
▁luminescent	-11.3763
▁chronic	-11.3764
cp	-11.3768
▁Tm	-11.377
▁emitting	-11.3771
▁circuits	-11.3773
▁originate	-11.3773
▁DE	-11.3776
▁EG	-11.3779
-5-	-11.3781
▁sonication	-11.3782
▁adult	-11.3783
ICP	-11.3784
▁conservative	-11.3784
▁July	-11.3789
▁LB	-11.3789
▁reductive	-11.3789
Pc	-11.3791
▁Liu	-11.3802
▁manufactured	-11.3802
SD	-11.3806
▁[1	-11.3807
▁0.35	-11.3808
▁rarely	-11.3808
▁live	-11.381
▁appearing	-11.381
▁home	-11.3813
▁opportunities	-11.3813
▁beneath	-11.3813
7)	-11.3814
▁triggered	-11.3814
▁Atlantic	-11.3814
▁absorb	-11.3816
▁Arrhenius	-11.3817
▁rely	-11.3818
▁ecosystem	-11.3824
Ref	-11.3825
▁inverted	-11.3832
▁simplest	-11.3833
▁PPy	-11.3836
▁introduces	-11.3837
▁substance	-11.3838
▁underwent	-11.384
▁liposomes	-11.3845
▁TP	-11.385
▁notation	-11.3851
▁45°	-11.3854
▁accelerating	-11.3857
PT	-11.3859
ap	-11.3865
▁41	-11.3867
▁85%	-11.3869
▁individually	-11.3871
▁Reaction	-11.3874
FE	-11.3877
▁compartment	-11.3879
▁architectures	-11.3879
▁female	-11.3882
▁RP	-11.3884
▁Theorem	-11.3891
▁deterministic	-11.3893
▁LDH	-11.3894
▁TOC	-11.3898
▁inelastic	-11.39
▁Ocean	-11.3901
▁gets	-11.3903
▁customer	-11.3903
▁switched	-11.3904
▁Initially	-11.3905
anti	-11.3905
▁BN	-11.3906
▁residential	-11.3907
▁SU	-11.3907
▁decays	-11.3911
▁siRNA	-11.3913
▁revealing	-11.3914
▁Typical	-11.3914
▁lag	-11.3915
▁tunable	-11.3922
▁manifold	-11.3924
▁4.6	-11.3929
ha	-11.3929
▁offshore	-11.3931
▁Molecular	-11.3932
sol	-11.3934
▁suffer	-11.3935
▁entrance	-11.3935
conjugated	-11.3938
▁PR	-11.394
▁Rayleigh	-11.3945
▁4000	-11.3949
▁logarithmic	-11.3955
ST	-11.3959
correlation	-11.3966
▁isotopes	-11.3971
▁FEM	-11.3972
▁occupy	-11.3973
▁unexpected	-11.3973
▁contaminated	-11.3974
averaged	-11.3975
▁rows	-11.3976
gap	-11.3977
▁pollutant	-11.3979
▁bounds	-11.3982
▁reversal	-11.3984
▁reservoirs	-11.3985
▁nearby	-11.3986
▁exponentially	-11.3987
alkyl	-11.3988
▁adsorbate	-11.3989
yr	-11.3993
▁43	-11.3994
▁DOS	-11.3995
▁fat	-11.3996
Sc	-11.3999
▁Electrochemical	-11.4002
||	-11.4002
▁optically	-11.4002
▁greenhouse	-11.4003
▁NE	-11.4006
NS	-11.4009
SC	-11.401
▁eigenvalue	-11.4015
▁attraction	-11.4016
▁hydroxy	-11.4017
phen	-11.4018
ka	-11.4019
▁PCL	-11.402
▁milk	-11.4022
charge	-11.4022
▁∼1	-11.4026
▁nanostructure	-11.403
▁graphs	-11.4031
▁wastes	-11.4033
▁fitness	-11.4039
▁encapsulation	-11.404
▁drain	-11.4044
▁mechanistic	-11.4045
izing	-11.4046
▁port	-11.4048
▁His	-11.4051
ar	-11.4056
▁assisted	-11.4057
▁magneto	-11.4063
▁vertex	-11.4064
▁Multi	-11.4064
▁interconnected	-11.4064
▁retain	-11.4066
▁EtOAc	-11.4066
▁cultivation	-11.4069
▁ketone	-11.4073
▁singular	-11.4074
▁EA	-11.4075
▁HRTEM	-11.4076
▁...	-11.4078
land	-11.4082
▁KBr	-11.4082
–4	-11.4086
associated	-11.4091
▁asphalt	-11.4096
www	-11.4097
▁Complex	-11.4098
▁sulfuric	-11.4099
▁comparatively	-11.4101
▁energetically	-11.4103
▁sustained	-11.4103
▁families	-11.4108
▁modifying	-11.4109
▁granules	-11.411
▁Bay	-11.411
coupling	-11.4113
▁rGO	-11.4119
entries	-11.412
two	-11.4121
▁TD	-11.4122
▁paid	-11.4127
▁signs	-11.4129
▁markets	-11.4133
▁bandgap	-11.4135
▁adsorbents	-11.4138
▁autoclave	-11.414
▁tens	-11.4141
oriented	-11.4145
▁Method	-11.4147
▁ceria	-11.4148
▁OC	-11.4152
▁weighting	-11.4153
▁10−	-11.4153
▁shale	-11.4156
▁chose	-11.4158
noise	-11.4161
▁sorbent	-11.4162
▁expressing	-11.4162
▁propagating	-11.4164
▁labeling	-11.4165
▁spiked	-11.4167
47	-11.4167
▁choosing	-11.4174
▁Dr	-11.4175
▁0.001	-11.4176
▁photocatalysts	-11.4178
▁avoiding	-11.4181
Yb	-11.4184
▁methodologies	-11.4187
mentioned	-11.4188
▁repulsive	-11.4196
▁occupancy	-11.4202
▁quaternary	-11.4202
▁yr	-11.4204
▁Early	-11.4205
▁potency	-11.4208
▁opposed	-11.4208
▁170	-11.421
▁SAM	-11.4211
▁incoming	-11.4211
▁happens	-11.4212
pass	-11.4214
▁sudden	-11.4215
▁(1.0	-11.4215
▁MOF	-11.4217
▁exceeding	-11.4218
▁tape	-11.422
▁closest	-11.422
▁grating	-11.4223
▁SM	-11.4224
▁accommodate	-11.4224
▁mbar	-11.4228
polar	-11.4231
▁rises	-11.4235
▁46	-11.4236
AT	-11.4236
▁Merck	-11.4237
49	-11.4242
▁depleted	-11.4247
▁4.8	-11.4247
▁Time	-11.4251
▁basins	-11.4254
▁termed	-11.4254
▁satisfying	-11.4257
▁dispersions	-11.4258
▁10.0	-11.4258
▁HIV	-11.4263
▁weighed	-11.4263
ns	-11.4264
▁HC	-11.427
selective	-11.4272
▁Phase	-11.4273
▁reflectivity	-11.4274
▁shifting	-11.4281
▁San	-11.4282
▁false	-11.4286
▁heavily	-11.4286
PR	-11.4287
▁PU	-11.4289
12,	-11.4291
▁call	-11.4291
▁compliance	-11.4296
▁personal	-11.4297
▁belt	-11.4297
▁compensate	-11.4297
▁deliver	-11.4297
▁resolve	-11.4298
▁compaction	-11.4298
▁2012).	-11.4298
circuit	-11.4299
▁translational	-11.43
▁adsorb	-11.4301
▁(“	-11.4303
bed	-11.4314
PM	-11.4314
▁3.4	-11.4314
▁steep	-11.4315
▁57	-11.4316
▁dendritic	-11.4317
▁[10]	-11.4318
▁roll	-11.4319
▁10−2	-11.4321
▁license	-11.4322
▁(18)	-11.4322
BT	-11.4323
▁Hf	-11.4327
▁Lee	-11.4328
▁patch	-11.4328
set	-11.433
2·	-11.4337
▁mortality	-11.4338
▁Gas	-11.4339
▁null	-11.4343
▁facilitated	-11.4343
▁confocal	-11.4347
▁MT	-11.435
▁glacial	-11.4351
▁guarantee	-11.4351
▁dehydrogenation	-11.4354
−1(	-11.4355
▁matches	-11.4355
▁exp	-11.4356
▁video	-11.4357
effective	-11.4359
▁disappearance	-11.436
▁cohesive	-11.436
▁DG	-11.4361
▁compressor	-11.4363
▁Fisher	-11.4365
▁separating	-11.4369
performance	-11.4369
▁PB	-11.4372
▁escape	-11.4375
▁reciprocal	-11.4377
▁Scanning	-11.4378
▁crops	-11.438
▁FWHM	-11.4383
▁worldwide	-11.4384
▁transfection	-11.4385
▁SBA	-11.4385
HP	-11.4386
αβ	-11.4387
▁firm	-11.4389
▁delamination	-11.4394
▁nodal	-11.4395
▁proceeded	-11.4395
▁rain	-11.4397
area	-11.4401
▁photochemical	-11.4403
▁lists	-11.4403
▁June	-11.4405
▁passivation	-11.4406
▁GSH	-11.4412
▁Le	-11.4422
▁̈	-11.4423
▁capacitor	-11.4428
▁56	-11.443
visible	-11.4431
Pi	-11.4432
▁aerobic	-11.4434
▁workers	-11.4434
▁TNF	-11.4435
▁beta	-11.4443
▁activate	-11.4443
▁plausible	-11.4443
Section	-11.4444
▁simpler	-11.4445
▁basically	-11.4452
▁cadmium	-11.4456
zi	-11.4456
equilibrium	-11.4457
▁DR	-11.4459
▁Center	-11.4461
▁analytically	-11.4461
▁offered	-11.4461
▁cantilever	-11.4461
first	-11.4462
▁superposition	-11.4469
sub	-11.4474
▁fan	-11.4476
▁hundred	-11.4477
▁voltammograms	-11.4477
)=0	-11.4478
▁FF	-11.4481
▁pressed	-11.4492
▁[11]	-11.4492
EtOAc	-11.4493
▁mold	-11.4501
▁portions	-11.4506
▁patterned	-11.4509
▁230	-11.4511
▁antimicrobial	-11.4515
*)	-11.4517
▁terrestrial	-11.4517
CNTs	-11.4518
▁algae	-11.4519
▁passage	-11.4523
TGA	-11.4523
▁normalization	-11.4529
▁accelerate	-11.453
▁imidazole	-11.453
methanol	-11.4531
▁odd	-11.4539
▁branched	-11.454
ir	-11.454
▁Canada	-11.4543
▁star	-11.4544
▁PES	-11.4544
▁thinner	-11.4547
▁(60	-11.4547
▁striking	-11.4548
▁NR	-11.4548
▁mutual	-11.455
▁nitrite	-11.4553
▁biomedical	-11.4561
▁Nusselt	-11.4567
▁equivalence	-11.4568
▁deterioration	-11.4573
▁rotary	-11.4574
▁participation	-11.4577
▁encoding	-11.4577
▁pole	-11.4577
▁prescribed	-11.4577
▁customers	-11.4578
▁waveguide	-11.4579
▁macrophages	-11.4585
54	-11.4585
quality	-11.4588
law	-11.4589
coordinated	-11.4589
▁absorbing	-11.459
CeO	-11.4592
▁regulate	-11.4593
▁similarities	-11.4598
▁analyse	-11.4601
▁diet	-11.4603
400	-11.4603
kBT	-11.4604
▁participate	-11.4612
▁resistances	-11.4612
▁accident	-11.4618
pot	-11.4619
▁existed	-11.4624
▁mapped	-11.4625
0;	-11.4625
▁originates	-11.4626
500	-11.4627
▁Importantly	-11.463
▁separator	-11.4631
▁approaching	-11.4632
▁East	-11.4633
▁helix	-11.4634
ethanol	-11.4635
NT	-11.4636
▁foundation	-11.4638
▁sulphate	-11.4638
TP	-11.464
▁driver	-11.4641
▁additionally	-11.4641
▁text	-11.4642
▁Central	-11.4643
DE	-11.4643
▁disturbances	-11.4644
▁0.08	-11.4649
▁collective	-11.4651
▁TN	-11.4653
ox	-11.4659
▁examining	-11.4671
▁fission	-11.4671
▁lab	-11.4672
▁bulky	-11.4675
▁Currently	-11.4675
substrate	-11.4676
▁branching	-11.4678
si	-11.4682
▁eff	-11.4683
▁rheological	-11.4684
▁phosphor	-11.4688
)·	-11.469
resistant	-11.4691
▁(1.5	-11.4693
▁hydrophobicity	-11.4694
▁0°	-11.4695
▁firms	-11.4696
▁∞	-11.4697
▁4.4	-11.4697
MW	-11.4698
▁MG	-11.4703
▁meshes	-11.4709
▁0.20	-11.471
▁argued	-11.471
▁visualized	-11.4712
▁insignificant	-11.4714
▁Very	-11.4718
▁standing	-11.472
shift	-11.4723
%).	-11.4726
†)	-11.4727
▁adducts	-11.4727
▁micelle	-11.473
▁manual	-11.473
▁oligonucleotide	-11.4732
jk	-11.4734
▁discontinuous	-11.4737
*(	-11.474
▁today	-11.4744
▁collect	-11.4746
Tr	-11.4752
▁tips	-11.4754
▁neighbors	-11.4755
▁Agilent	-11.4755
li	-11.4756
xk	-11.4762
▁tried	-11.4763
na	-11.4766
•	-11.4767
▁Nu	-11.4767
+∂	-11.4767
CC	-11.4768
tk	-11.4768
▁vital	-11.4768
▁polishing	-11.4773
63	-11.4777
=∂	-11.4779
▁eddy	-11.478
▁manipulation	-11.4781
▁piece	-11.4786
▁ASTM	-11.4787
▁ago	-11.4791
▁metrics	-11.4792
▁articles	-11.4792
▁places	-11.4795
▁ANOVA	-11.4798
▁crustal	-11.4798
▁(3),	-11.4798
▁bp	-11.4801
▁cytotoxic	-11.4802
3)3	-11.4802
▁9(	-11.4804
LA	-11.4806
▁cal	-11.4807
▁stepwise	-11.4807
▁1–2	-11.4808
▁harvesting	-11.4811
▁8.4	-11.4815
▁repeat	-11.4817
▁plain	-11.4817
ET	-11.4822
▁drawing	-11.4822
▁screw	-11.4823
▁pipeline	-11.4828
▁epithelial	-11.4829
▁rural	-11.4831
▁receiving	-11.4834
▁stacked	-11.4834
▁Methods	-11.4835
▁Those	-11.4837
domain	-11.4845
▁till	-11.4846
▁Especially	-11.4847
▁optimisation	-11.4849
▁lacking	-11.485
▁primers	-11.4851
▁ageing	-11.4852
mi	-11.4857
▁transparency	-11.486
▁separations	-11.4862
8)	-11.4863
▁SPE	-11.4864
but	-11.4865
▁relating	-11.4869
▁moderately	-11.4871
cis	-11.4871
▁equatorial	-11.4872
▁sucrose	-11.4873
bar	-11.4874
▁disruption	-11.4875
▁dedicated	-11.4882
dy	-11.4882
▁household	-11.4883
▁disposal	-11.4885
▁pumped	-11.4886
▁47	-11.4889
▁bimetallic	-11.4892
▁Curie	-11.4893
propanol	-11.4894
▁virtually	-11.4894
am	-11.49
MC	-11.4901
▁Large	-11.4909
▁specifications	-11.4909
PCR	-11.491
▁facies	-11.4913
▁analogy	-11.4919
▁concentrate	-11.492
!	-11.4921
▁supplementary	-11.4925
▁TL	-11.4925
▁finer	-11.493
−2.	-11.4933
▁primer	-11.4934
▁strand	-11.4935
▁Small	-11.4936
▁nitro	-11.4938
▁expand	-11.494
▁pipes	-11.4941
▁OD	-11.4941
▁drilling	-11.4942
▁0.06	-11.4942
▁circles	-11.4949
▁anhydride	-11.495
Be	-11.4951
TC	-11.4951
▁failures	-11.4951
−2)	-11.4951
▁Dirac	-11.4951
▁pile	-11.4953
mn	-11.4953
▁7.8	-11.4953
▁coworkers	-11.4957
▁lying	-11.496
▁arrangements	-11.4965
▁10-	-11.4969
activated	-11.4971
▁Taylor	-11.4971
▁acyl	-11.4972
▁isolate	-11.4972
NF	-11.4978
▁sc	-11.4982
▁SH	-11.4984
▁syntheses	-11.4986
▁hindered	-11.4987
▁degenerate	-11.499
▁PT	-11.4991
▁actuator	-11.4992
▁vertices	-11.4993
▁characterizing	-11.4993
▁2008).	-11.4993
▁children	-11.4996
▁aniline	-11.5002
▁students	-11.5002
▁you	-11.5005
▁engines	-11.5008
▁pretreated	-11.5011
centered	-11.5012
▁thermodynamics	-11.5017
▁initiate	-11.5018
▁Pre	-11.502
▁9).	-11.5022
▁sized	-11.5024
▁Five	-11.5025
▁CdTe	-11.5025
▁verification	-11.5025
▁inequality	-11.5029
▁fullerene	-11.503
▁goals	-11.5031
▁printing	-11.5037
▁phenotype	-11.5038
▁young	-11.5042
▁tandem	-11.5046
3+,	-11.5052
▁evolutionary	-11.5053
▁flight	-11.5053
▁Shimadzu	-11.5055
▁Up	-11.5058
▁visualization	-11.5062
é	-11.5065
▁covariance	-11.5065
▁immuno	-11.5069
PW	-11.5072
coating	-11.5073
▁replication	-11.5075
▁cured	-11.5075
▁soon	-11.5078
▁counterpart	-11.5085
▁PG	-11.5087
BA	-11.5088
▁meaningful	-11.5091
TG	-11.5092
MD	-11.5092
▁thermoelectric	-11.5094
▁mesopores	-11.5097
▁March	-11.5099
▁notice	-11.51
▁parabolic	-11.5101
−2,	-11.5103
▁methacrylate	-11.5103
▁intake	-11.5104
▁seconds	-11.5114
▁pumps	-11.5115
▁Stokes	-11.5116
▁generators	-11.5117
▁sugars	-11.5118
▁gains	-11.5119
▁3.8	-11.5119
▁carbonates	-11.5125
acetyl	-11.5125
▁AlN	-11.5128
▁publications	-11.5129
▁SPR	-11.5134
▁controllers	-11.5137
▁title	-11.5137
▁Current	-11.514
Ps	-11.5148
-2,	-11.5149
▁halogen	-11.5151
▁How	-11.5153
▁income	-11.5154
▁dividing	-11.5154
▁consumers	-11.5156
▁abrupt	-11.5159
▁2008	-11.5163
▁poured	-11.5164
▁CaCO	-11.5166
▁107	-11.5168
▁2013).	-11.5168
▁deficiency	-11.5178
▁delta	-11.5179
▁scanned	-11.5184
▁1980	-11.5184
▁indexed	-11.5186
▁2–3	-11.5187
▁Van	-11.5188
da	-11.5191
=5	-11.5194
▁flames	-11.5196
curve	-11.5196
▁outdoor	-11.5201
▁solver	-11.5206
▁simulating	-11.5207
▁manuscript	-11.5207
▁favourable	-11.5207
)=−	-11.5208
▁chelating	-11.5208
▁coincides	-11.5213
▁respond	-11.5214
ast	-11.5214
▁optimizing	-11.5214
▁forecast	-11.5218
▁August	-11.5218
▁scheduling	-11.5221
▁alginate	-11.5222
▁conceptual	-11.5222
▁99	-11.5223
▁permitted	-11.5224
▁relates	-11.5224
▁9,	-11.5227
▁expectation	-11.5232
▁EtOH	-11.5236
▁260	-11.5236
▁sulphur	-11.5241
▁interacts	-11.5241
▁conditioning	-11.5242
▁LPS	-11.5248
▁coolant	-11.5251
vinyl	-11.5251
▁fail	-11.5255
SnO	-11.5256
▁2012	-11.5258
il	-11.5263
▁99%	-11.5263
▁8%	-11.5267
▁covalently	-11.5268
▁thrust	-11.527
▁formalism	-11.5271
ous	-11.5272
▁foams	-11.5272
▁AS	-11.5273
׳	-11.5274
▁performs	-11.5275
▁rational	-11.5275
square	-11.5275
▁Fc	-11.5286
▁fluidized	-11.5291
▁insulator	-11.5301
▁RA	-11.5302
▁diffusive	-11.5302
▁grey	-11.5305
▁Africa	-11.5306
▁rotations	-11.5312
▁YSZ	-11.5315
power	-11.5319
old	-11.5319
▁Details	-11.5319
▁conduct	-11.5324
▁ramp	-11.5327
▁allocation	-11.5327
▁rotated	-11.5327
▁conjugates	-11.5328
DC	-11.5335
▁recrystallized	-11.5336
▁(1).	-11.5337
FTIR	-11.5338
▁turning	-11.5338
▁consensus	-11.5338
▁Apart	-11.5339
▁Calc	-11.5342
▁850	-11.5343
ID	-11.5343
Er	-11.5346
▁Un	-11.5347
biocompatibility	-11.5347
▁irradiance	-11.5353
▁weathering	-11.5355
▁inclined	-11.5356
51	-11.5358
mer	-11.5358
▁Above	-11.5359
▁filament	-11.5363
▁ISO	-11.5364
▁Corporation	-11.5365
▁inhibiting	-11.5366
▁[2].	-11.5368
▁FL	-11.537
depth	-11.537
▁corn	-11.5372
▁PTFE	-11.5379
▁straw	-11.538
▁norm	-11.5382
grade	-11.5383
▁(19)	-11.5385
ating	-11.5389
▁GHG	-11.5389
ive	-11.5389
▁integrals	-11.5391
-[	-11.5396
▁triplicate	-11.5397
▁PCE	-11.5397
▁coincide	-11.54
Ra	-11.5403
▁definitions	-11.5405
▁cities	-11.5407
static	-11.5409
▁voltammetric	-11.541
▁attributable	-11.5413
propyl	-11.5417
cast	-11.5418
▁screened	-11.5419
▁update	-11.5422
both	-11.5424
▁medicine	-11.5428
HPLC	-11.5429
▁Rf	-11.5429
▁White	-11.5431
▁[16]	-11.5432
▁Synthesis	-11.5433
▁LED	-11.5434
▁Pacific	-11.5434
that	-11.5436
97	-11.5436
potential	-11.544
▁pyrite	-11.5441
▁−20	-11.5442
ma	-11.5443
EDS	-11.5443
▁homogenous	-11.5446
▁stripping	-11.5448
control	-11.5448
Tm	-11.5449
▁graphitic	-11.5451
▁constitutes	-11.5453
nano	-11.5458
Tb	-11.5462
▁disulfide	-11.5466
▁RO	-11.547
▁manually	-11.5472
▁frictional	-11.5475
oxygen	-11.5476
▁cardiac	-11.5482
▁drawbacks	-11.5482
▁kN	-11.5485
▁BM	-11.5486
▁oscillatory	-11.5487
▁percolation	-11.5488
HR	-11.549
▁tangent	-11.5496
▁etch	-11.5499
▁emulsions	-11.5502
5%	-11.5508
▁catchment	-11.551
▁administered	-11.5513
▁(0.2	-11.5513
▁intermetallic	-11.5514
▁orbit	-11.5519
▁fin	-11.5519
doping	-11.5521
kl	-11.5521
▁spinning	-11.5521
▁wake	-11.5523
▁functionalities	-11.5524
▁returns	-11.5525
▁implicit	-11.5526
zz	-11.553
▁magma	-11.5531
▁Control	-11.5531
▁incremental	-11.5533
▁photonic	-11.5534
rGO	-11.5536
▁electrically	-11.5536
▁membership	-11.554
▁canopy	-11.5541
▁notably	-11.5541
BL	-11.5542
▁[3].	-11.5543
▁extrapolation	-11.5545
▁truncated	-11.5548
▁320	-11.5548
▁appreciable	-11.555
▁chloro	-11.555
▁detrimental	-11.5558
=1,	-11.5559
▁360	-11.5561
▁Red	-11.5569
▁directional	-11.5572
polymerization	-11.5572
▁bioactive	-11.5575
▁monomeric	-11.5575
▁MOFs	-11.5578
▁analogs	-11.5581
▁minute	-11.5582
▁bus	-11.5585
ML	-11.5585
ium	-11.5587
bottom	-11.5589
▁mimic	-11.559
Tf	-11.5592
▁whereby	-11.5594
made	-11.5602
normal	-11.5602
▁machines	-11.5604
▁slides	-11.5605
▁chips	-11.5605
▁notch	-11.5606
▁bundle	-11.5608
▁cooperative	-11.5609
▁mention	-11.5611
▁constructs	-11.5611
▁MgSO	-11.5614
▁preceding	-11.5616
▁inhibits	-11.5618
▁outstanding	-11.5622
▁thiophene	-11.5623
tn	-11.5623
▁residuals	-11.5625
▁occupation	-11.5632
▁MCF	-11.5632
▁tracks	-11.5633
▁severity	-11.5634
▁equivalents	-11.5634
▁ketones	-11.5639
▁4),	-11.5639
▁possessing	-11.5643
▁PAA	-11.5644
▁(~	-11.5649
▁superficial	-11.565
▁Power	-11.5652
▁backward	-11.5654
plastic	-11.5654
▁Lower	-11.5655
▁ESR	-11.5657
molecule	-11.5661
▁board	-11.5662
▁name	-11.5663
▁carbides	-11.5663
▁bifurcation	-11.5663
▁publication	-11.5664
▁(20)	-11.5666
▁(4),	-11.5669
▁1.25	-11.5671
▁plug	-11.5672
▁biosynthesis	-11.5677
▁infected	-11.5679
▁Compounds	-11.5681
▁Substituting	-11.5682
▁Materials	-11.5683
800	-11.5684
▁diodes	-11.5684
▁comfort	-11.5686
▁turbines	-11.5687
▁Debye	-11.569
▁Nonetheless	-11.5693
▁night	-11.5696
▁hydrochloric	-11.5696
▁vial	-11.5698
so	-11.57
▁January	-11.5701
phonon	-11.5704
▁nonlinearity	-11.5705
deficient	-11.5705
▁hybrids	-11.5707
▁cavitation	-11.5707
▁ongoing	-11.5708
▁ore	-11.5716
▁computationally	-11.5717
▁Likewise	-11.5717
ro	-11.5718
▁TMS	-11.5721
▁team	-11.5721
▁shortest	-11.5722
▁HER	-11.5724
▁Lagrangian	-11.5725
▁Company	-11.5728
sh	-11.5729
▁2015)	-11.573
▁60°	-11.573
making	-11.5735
▁mitochondria	-11.5742
SF	-11.5746
▁throughput	-11.5747
▁emphasized	-11.5748
▁formulas	-11.5751
]−	-11.5755
▁dating	-11.5757
▁cysteine	-11.5758
▁Detailed	-11.576
▁worst	-11.576
diameter	-11.5761
0/	-11.5763
HS	-11.5764
▁transforms	-11.5765
ps	-11.5766
▁limestone	-11.5769
▁termination	-11.5769
▁seemed	-11.5771
walled	-11.5772
▁phonons	-11.5775
▁combines	-11.5775
▁aquifer	-11.5776
▁rivers	-11.5777
▁Sun	-11.5781
▁CTAB	-11.5783
BC	-11.5783
▁flue	-11.5783
▁NA	-11.5783
▁Without	-11.5787
▁decompose	-11.5787
▁narrower	-11.5787
▁substitute	-11.5791
▁RGO	-11.5792
▁secretion	-11.5794
▁Ne	-11.5797
▁propane	-11.5805
▁dissolve	-11.5809
▁3.7	-11.581
▁Py	-11.5811
ment	-11.5811
67	-11.5815
▁semiconducting	-11.5817
▁conditional	-11.5817
▁melts	-11.5822
▁PVC	-11.5824
butanol	-11.5825
tot	-11.5826
▁stimulus	-11.5827
acceptor	-11.5832
▁patches	-11.5835
▁irrespective	-11.584
rm	-11.584
▁propagate	-11.5841
▁analytic	-11.5843
long	-11.5845
▁conical	-11.5846
▁manufacture	-11.5847
cut	-11.5847
▁0.12	-11.5849
AM	-11.585
OR	-11.5861
▁transistors	-11.5862
▁hydrochloride	-11.5863
An	-11.5863
▁terminated	-11.5866
▁Holocene	-11.5867
▁6%	-11.5868
ji	-11.5869
▁∫	-11.5871
▁smart	-11.5871
▁simplify	-11.5875
▁accumulate	-11.5876
▁American	-11.5878
▁realization	-11.5887
▁neighbor	-11.5887
▁registered	-11.5888
▁cyclohexane	-11.5891
▁clearance	-11.5898
▁CaCl	-11.5899
Ms	-11.59
68	-11.5903
▁crucible	-11.5905
▁190	-11.5908
▁highlights	-11.5908
▁indirectly	-11.5908
▁tumour	-11.5912
▁correlates	-11.5913
▁discrimination	-11.5913
oxy	-11.5915
▁MALDI	-11.5919
450	-11.5919
▁neuronal	-11.5921
hi	-11.5925
▁perceived	-11.5925
▁drawback	-11.5926
▁12.5	-11.5927
glass	-11.5928
▁polyelectrolyte	-11.5928
NR	-11.5928
yy	-11.593
DSC	-11.5931
▁prone	-11.5934
▁th	-11.5934
Elmer	-11.5936
CE	-11.5937
▁0.50	-11.5938
▁store	-11.5938
▁rigidity	-11.5939
▁exclusion	-11.5939
▁tightly	-11.5939
▁hyperfine	-11.5941
▁chaotic	-11.5942
▁MWCNT	-11.5943
▁pollen	-11.5945
ie	-11.5946
▁posterior	-11.5946
▁2009;	-11.5951
▁priori	-11.5951
▁densification	-11.5952
SI	-11.5952
▁halide	-11.5953
▁4.3	-11.5958
▁saving	-11.5961
▁kidney	-11.5962
saturated	-11.5963
▁freshwater	-11.5965
▁neutrons	-11.5966
▁mammalian	-11.5974
▁Owing	-11.5974
▁opened	-11.5979
reduction	-11.5979
▁unmodified	-11.5979
)[	-11.5988
acid	-11.5989
▁[8].	-11.5989
▁[6].	-11.599
▁2010;	-11.5992
▁converge	-11.5995
▁2002	-11.5996
factor	-11.6001
▁wettability	-11.6003
▁buried	-11.6003
▁assign	-11.6003
▁trigonal	-11.6003
▁specification	-11.6006
▁OA	-11.6006
▁hazard	-11.601
▁pocket	-11.601
▁GP	-11.6011
▁integrate	-11.6017
▁breaks	-11.6021
fit	-11.6022
▁hypothesized	-11.6024
▁[4].	-11.6026
▁experiences	-11.6028
Hg	-11.603
MM	-11.6031
BH	-11.6031
▁bead	-11.6032
▁emergence	-11.6032
precipitation	-11.6035
▁worse	-11.6035
▁April	-11.6037
▁acceptance	-11.6039
∂∂	-11.604
▁vice	-11.6041
(100)	-11.6042
▁discrepancies	-11.6042
▁MI	-11.6044
▁permit	-11.6047
▁2007).	-11.6048
EA	-11.6048
ley	-11.6051
▁arrows	-11.6051
▁sophisticated	-11.6053
⩾	-11.6056
▁arguments	-11.6058
▁Numerical	-11.6063
Pa	-11.6069
yn	-11.607
▁Yang	-11.6073
▁slide	-11.6078
IS	-11.6078
▁[7].	-11.6079
▁RMS	-11.608
▁∼10	-11.6081
▁hourly	-11.6082
▁hundreds	-11.6086
∂2	-11.6086
▁GS	-11.6087
▁[9].	-11.6089
▁MF	-11.6089
▁EP	-11.609
85	-11.6091
▁capacitive	-11.6093
▁OM	-11.6093
tin	-11.6094
▁degrade	-11.6094
SW	-11.6099
DM	-11.6102
▁Π	-11.6102
Ri	-11.6105
▁SL	-11.6109
dc	-11.6111
▁dihedral	-11.6116
▁counted	-11.6117
▁[11].	-11.612
▁drinking	-11.6123
▁ship	-11.6125
Es	-11.6128
▁torsional	-11.6129
▁azide	-11.6132
▁annular	-11.6134
▁antenna	-11.6135
▁compensated	-11.6135
▁10,000	-11.6136
Fc	-11.6136
thermal	-11.6137
▁September	-11.6138
▁4.1	-11.6139
▁pulp	-11.6139
▁hindrance	-11.6141
▁Cy	-11.6141
▁[1]	-11.6144
▁Test	-11.6145
▁amplifier	-11.6149
▁differing	-11.6151
▁penalty	-11.6152
▁skeletal	-11.6152
▁subunits	-11.6166
dp	-11.6169
▁protease	-11.6171
▁Material	-11.6174
▁meteorological	-11.6175
▁emphasis	-11.6176
Sm	-11.6177
▁persistent	-11.6177
US	-11.6179
▁[5].	-11.6179
▁[12].	-11.6181
▁diminished	-11.6182
▁ED	-11.6183
▁probabilistic	-11.6185
▁modest	-11.6191
▁inversely	-11.6201
▁2005	-11.6202
▁State	-11.6204
1′	-11.6208
▁imaged	-11.621
6),	-11.6211
▁Im	-11.6212
▁Creative	-11.6214
▁pairing	-11.6215
PD	-11.6215
▁sun	-11.6221
▁108	-11.6222
▁severely	-11.6223
▁dates	-11.6225
▁storm	-11.6226
▁58	-11.6229
▁columnar	-11.6229
▁conversions	-11.6229
▁Mp	-11.623
▁answer	-11.623
▁GM	-11.6231
grown	-11.6233
▁language	-11.6233
▁coagulation	-11.6234
TE	-11.6235
▁Mediterranean	-11.6241
▁initiator	-11.6242
▁PAHs	-11.6243
▁TOF	-11.6244
11,	-11.6253
▁establishing	-11.6253
▁EN	-11.6256
▁overpotential	-11.6265
95	-11.6274
▁pinning	-11.6274
▁DCM	-11.6276
▁carbonaceous	-11.6278
▁carbohydrate	-11.6279
▁1–4	-11.6281
▁detachment	-11.6281
▁workpiece	-11.629
▁reality	-11.6291
▁discontinuity	-11.6292
▁GR	-11.6294
▁Optical	-11.6295
▁subunit	-11.6296
▁GFP	-11.6296
▁NaHCO	-11.6298
▁AE	-11.6299
▁diabetes	-11.63
▁electrocatalyst	-11.6302
▁unreacted	-11.6303
dV	-11.6304
▁actin	-11.6304
▁0.05)	-11.6304
▁Tokyo	-11.6305
▁wound	-11.6306
′+	-11.6306
▁summation	-11.6308
▁geothermal	-11.6308
uperconductivity	-11.631
back	-11.631
▁EI	-11.6314
▁geochemical	-11.6314
▁excitons	-11.6316
blue	-11.6317
▁Os	-11.6322
▁households	-11.6323
▁9.0	-11.6324
▁disappears	-11.6326
#	-11.6327
▁develops	-11.6329
▁sequentially	-11.6332
▁Commons	-11.6337
▁2:1	-11.6337
▁slit	-11.6338
▁buoyancy	-11.6341
using	-11.6341
▁sake	-11.6342
▁gelatin	-11.6342
▁pm	-11.6348
▁vanishes	-11.6348
▁Korea	-11.6355
▁thresholds	-11.6355
▁[13].	-11.6356
▁nanometer	-11.6364
▁transducer	-11.6364
▁inexpensive	-11.6366
▁degassed	-11.6367
▁FS	-11.6367
▁canonical	-11.6368
▁heme	-11.6369
exponential	-11.6369
▁delays	-11.6371
→∞	-11.6376
▁[14].	-11.6377
▁dopants	-11.6379
▁Hitachi	-11.6384
IP	-11.6388
▁chirality	-11.6388
▁plasmonic	-11.6389
▁(150	-11.639
86	-11.6393
▁disks	-11.6395
▁allyl	-11.6395
▁implant	-11.6397
tetra	-11.6399
CR	-11.6401
▁symbols	-11.6401
03	-11.6404
cooled	-11.6406
▁schedule	-11.6407
▁abnormal	-11.6407
▁doubly	-11.6408
▁7.3	-11.6408
▁forecasting	-11.641
▁reviews	-11.6414
▁MM	-11.6415
weight	-11.6416
▁instructions	-11.6417
∗)	-11.6418
▁2008;	-11.642
▁leave	-11.6424
LS	-11.6424
▁shaft	-11.6425
▁cube	-11.6426
▁enters	-11.6429
rays	-11.643
▁unaffected	-11.6431
6%	-11.6433
▁execution	-11.6435
▁polysaccharides	-11.6435
▁printed	-11.6438
▁cable	-11.6439
▁disorders	-11.6439
▁multivariate	-11.6442
▁strips	-11.6447
▁instrumental	-11.645
0.25	-11.6453
▁(2.5	-11.6454
▁West	-11.6454
▁chromophore	-11.6455
DMF	-11.6455
▁triangle	-11.6456
reaction	-11.6457
▁54	-11.6461
ke	-11.6461
▁genomic	-11.6463
▁[10].	-11.6464
xn	-11.6465
▁BA	-11.6466
▁phosphine	-11.6467
▁Pi	-11.6467
(0,	-11.6473
coordinate	-11.6473
▁0.22	-11.6474
▁CMC	-11.6474
▁oxy	-11.6477
▁conductor	-11.6478
▁aircraft	-11.6478
bio	-11.6484
▁TB	-11.6487
(5)	-11.6487
▁EB	-11.6494
▁distal	-11.6495
▁regulations	-11.6497
PBS	-11.6497
▁exclude	-11.6498
▁WS	-11.6503
▁Italy	-11.6504
▁facing	-11.6506
▁lasers	-11.6514
▁healing	-11.6515
▁glycine	-11.6515
▁calorimetry	-11.6518
6+	-11.6521
▁equilibration	-11.6523
▁floating	-11.6523
▁correspondence	-11.6523
▁settling	-11.6526
▁zirconium	-11.6526
▁Yet	-11.6526
pp	-11.6529
Ci	-11.6529
▁Pu	-11.6529
▁49	-11.6529
▁spaced	-11.653
▁methylation	-11.6531
TT	-11.6535
ions	-11.6536
▁converter	-11.6536
▁solder	-11.6537
Xi	-11.6538
▁agreed	-11.654
2[	-11.654
▁proves	-11.6542
http	-11.6543
et	-11.6546
▁Later	-11.6546
▁job	-11.6549
▁ohmic	-11.655
▁signatures	-11.655
]+,	-11.6551
▁30°	-11.6552
▁grew	-11.6553
▁versa	-11.6555
▁profit	-11.6556
▁LP	-11.6557
▁GW	-11.6557
▁presenting	-11.6559
▁implied	-11.656
os	-11.6561
▁anticancer	-11.6566
▁mud	-11.6566
▁(5),	-11.6576
▁FP	-11.6576
▁[15].	-11.6581
▁Usually	-11.6583
▁Design	-11.6584
width	-11.6586
▁displaced	-11.659
lin	-11.6596
run	-11.6601
▁increments	-11.6601
▁refluxed	-11.6604
▁private	-11.6605
58	-11.6606
▁Ac	-11.661
Rs	-11.6611
RF	-11.6612
▁consumer	-11.6615
dT	-11.6616
av	-11.6617
▁recoveries	-11.6617
▁circulating	-11.6618
,...,	-11.6619
▁agar	-11.662
▁penetrate	-11.6621
▁\)	-11.6624
▁53	-11.6625
▁SG	-11.6626
▁63	-11.6628
▁vast	-11.6629
▁gelation	-11.6632
shifted	-11.6633
▁linking	-11.6634
▁BL	-11.6635
HB	-11.6636
▁representations	-11.6638
probe	-11.6638
▁concomitant	-11.6639
▁35%	-11.664
AS	-11.6643
▁discussions	-11.6644
→0	-11.6646
4@	-11.6647
▁motifs	-11.6649
▁anodes	-11.6651
▁MV	-11.6652
▁ME	-11.6655
▁priority	-11.6656
MCM	-11.6657
▁∣	-11.6657
▁solutes	-11.666
=0.5	-11.6661
column	-11.6661
▁transcriptional	-11.6661
▁biologically	-11.6665
▁biology	-11.6665
▁6.4	-11.6667
▁2.9	-11.6677
▁demonstration	-11.6677
-13	-11.6677
▁NaBH	-11.6678
ER	-11.6678
▁51	-11.6679
▁cathodes	-11.6679
ul	-11.6679
▁monotonically	-11.668
▁controllable	-11.668
scan	-11.6683
▁measurable	-11.6683
▁VI	-11.6685
▁crater	-11.6687
▁entities	-11.6687
▁chemisorption	-11.6687
▁2014).	-11.6687
benzyl	-11.6689
▁anthropogenic	-11.6689
regulated	-11.6692
cl	-11.6693
▁successively	-11.6694
▁observing	-11.6695
▁′	-11.6696
78	-11.6701
(2-	-11.6705
▁Actually	-11.6706
▁UO	-11.6706
▁pointing	-11.6707
OMe	-11.6707
▁breakthrough	-11.6709
ra	-11.6709
▁redistribution	-11.6711
RA	-11.6712
▁pressing	-11.6713
▁monolithic	-11.6714
terminated	-11.6714
system	-11.6716
▁Protein	-11.6717
▁researches	-11.6717
EG	-11.6718
▁plating	-11.6724
▁du	-11.6724
▁disadvantages	-11.6727
▁ranking	-11.6731
1%	-11.6732
▁connect	-11.6734
▁groove	-11.6738
▁7)	-11.6739
▁experts	-11.6739
▁inclination	-11.674
▁quick	-11.6744
–5	-11.6744
▁nucleic	-11.6745
▁conformers	-11.6745
▁Human	-11.6746
▁milled	-11.675
▁octahedra	-11.6754
fluoro	-11.6755
▁turnover	-11.6756
Pro	-11.6757
▁cognitive	-11.6757
▁SN	-11.6759
generation	-11.6763
▁AZ	-11.6764
06	-11.6765
▁Cretaceous	-11.6765
▁Air	-11.6769
3·	-11.6769
▁hydrazine	-11.677
▁Island	-11.6771
▁87	-11.6774
▁naphthalene	-11.6779
MO	-11.678
PV	-11.6781
▁America	-11.6781
▁IFN	-11.6783
▁expert	-11.6783
▁Systems	-11.6786
micro	-11.6786
∝	-11.6786
▁periodicity	-11.6787
▁Natural	-11.6787
▁photolysis	-11.6792
earth	-11.6792
2);	-11.6793
▁homo	-11.6794
▁linkages	-11.6795
net	-11.6798
–10	-11.6799
▁repetition	-11.6799
▁protecting	-11.6799
wide	-11.68
▁microporous	-11.6801
87	-11.6801
ling	-11.6802
▁pale	-11.6803
▁definite	-11.6804
▁graded	-11.6807
▁preservation	-11.6808
0.05	-11.6808
▁micrograph	-11.6809
▁basement	-11.681
▁phytoplankton	-11.6812
▁notion	-11.6814
functional	-11.6816
▁□	-11.6822
▁circumstances	-11.6824
▁emphasize	-11.6828
▁antibiotics	-11.6829
▁periodically	-11.683
▁behaves	-11.683
▁fetal	-11.6831
electrolyte	-11.6838
▁differentiated	-11.6839
Vs	-11.684
▁surveys	-11.6843
▁biodegradable	-11.6844
TR	-11.6844
▁lattices	-11.6845
emitting	-11.6846
▁economical	-11.6846
▁establishment	-11.6848
▁sinusoidal	-11.6854
▁division	-11.6854
▁positioning	-11.6855
shown	-11.6858
▁cotton	-11.6859
⇒	-11.6861
concentration	-11.6863
▁signalling	-11.6865
▁zircon	-11.6868
▁graft	-11.6872
▁recirculation	-11.6875
▁cDNA	-11.6877
▁hydrostatic	-11.6878
▁PAH	-11.6878
▁contours	-11.688
▁constructing	-11.688
▁PDF	-11.6881
▁2007;	-11.6883
pre	-11.6887
▁acetylene	-11.6888
▁0.18	-11.6889
▁platelets	-11.6896
▁alternate	-11.6898
▁interplay	-11.6898
▁adequately	-11.6902
▁lone	-11.6903
▁algebraic	-11.6903
▁pain	-11.6906
▁...,	-11.6909
▁optics	-11.691
▁Spain	-11.6912
▁shaking	-11.6914
son	-11.6915
▁[17].	-11.6915
▁⟨	-11.6917
▁assignments	-11.6918
ner	-11.6918
▁farm	-11.6922
▁reporting	-11.6923
▁2006).	-11.6926
▁[16].	-11.6927
1:	-11.6928
▁presentation	-11.6932
▁breakage	-11.6934
∗=	-11.694
▁thermocouple	-11.6941
▁placing	-11.6942
▁chlorophyll	-11.6945
52	-11.6949
▁hardware	-11.695
.%)	-11.695
▁infer	-11.695
▁COP	-11.6952
electrochemical	-11.6957
▁compromise	-11.6959
wi	-11.6959
▁cladding	-11.6961
▁innovative	-11.6961
com	-11.6964
BD	-11.6969
▁Below	-11.6974
▁labelled	-11.6974
▁chambers	-11.6976
▁engineered	-11.6979
▁docking	-11.6982
)/(	-11.6982
FM	-11.6983
▁hematite	-11.6986
▁NT	-11.6987
▁firing	-11.6988
▁Sub	-11.6989
▁Euler	-11.6991
▁October	-11.6991
▁comprise	-11.6995
effect	-11.6998
▁bidentate	-11.6999
▁discharged	-11.6999
dm	-11.7001
▁wavenumber	-11.7002
3=	-11.7003
▁acceptors	-11.7004
▁repeatedly	-11.7005
▁SB	-11.7005
▁12%	-11.7007
▁freely	-11.7008
▁resist	-11.7013
▁consuming	-11.7013
▁aquatic	-11.7018
▁assemblages	-11.7025
▁cleaved	-11.7025
gen	-11.7025
stress	-11.7027
▁PH	-11.7029
▁monoxide	-11.7029
RGO	-11.703
▁acetyl	-11.7032
04	-11.7032
pl	-11.7034
▁photogenerated	-11.7034
000	-11.7035
4;	-11.7035
▁5.6	-11.7036
▁implementing	-11.7036
▁En	-11.7037
▁females	-11.7044
-1),	-11.7044
▁entanglement	-11.7045
element	-11.7046
▁summarize	-11.7047
▁came	-11.705
▁sputtered	-11.7052
▁corners	-11.7052
▁Analytical	-11.7053
▁multiplied	-11.7054
▁1600	-11.7054
symmetric	-11.7054
▁[18].	-11.7055
▁explosion	-11.7058
▁Shanghai	-11.7058
▁disappear	-11.7058
PH	-11.7058
▁à	-11.706
without	-11.7063
▁pits	-11.7063
▁oligo	-11.7063
⟨	-11.7064
▁Part	-11.7065
▁supplier	-11.7066
▁equilibrated	-11.7067
DS	-11.7068
▁Xe	-11.7069
▁270	-11.707
▁Solid	-11.7073
▁additions	-11.7075
▁CG	-11.7075
pr	-11.7076
▁0.95	-11.7077
▁tower	-11.7079
▁alterations	-11.708
▁420	-11.7082
2&	-11.7083
▁ferrocene	-11.7084
▁5.1	-11.7084
▁lighting	-11.7085
▁altitude	-11.7086
▁valves	-11.7088
▁0.30	-11.7089
PEI	-11.7091
▁pharmacological	-11.7093
▁le	-11.7096
▁falling	-11.7099
▁8.1	-11.71
▁Values	-11.7101
▁fractured	-11.7104
▁BE	-11.7105
▁phosphors	-11.7107
▁capping	-11.7111
▁(21)	-11.7112
▁differentiate	-11.7113
▁laboratories	-11.7114
second	-11.7115
▁monochromator	-11.7118
98	-11.712
▁bilayers	-11.712
▁complement	-11.7127
▁spiral	-11.7129
▁speciation	-11.713
▁ever	-11.7131
▁109	-11.7134
▁OR	-11.7136
▁8.2	-11.7136
JCPDS	-11.7137
▁∇	-11.7139
▁seasons	-11.7142
=8	-11.7144
fluid	-11.7146
▁justified	-11.7151
▁methoxy	-11.7152
▁LDA	-11.7152
88	-11.7155
▁California	-11.7155
▁classifier	-11.7155
▁exchanged	-11.7155
▁syngas	-11.7156
0]	-11.7157
▁Heat	-11.7158
▁segmentation	-11.716
plate	-11.7162
▁choices	-11.7162
▁silane	-11.7163
2)(	-11.7164
▁bundles	-11.7165
FF	-11.7165
▁Statistical	-11.7166
▁drastic	-11.7166
▁looking	-11.7167
▁HL	-11.7167
▁[2]	-11.7169
▁duct	-11.7173
▁pad	-11.7173
▁68	-11.7176
ice	-11.7177
▁pit	-11.7179
▁distinctive	-11.7182
▁TR	-11.7186
▁pull	-11.7187
▁undesirable	-11.7187
▁BT	-11.7187
▁thanks	-11.7187
▁synthesised	-11.7188
▁EXAFS	-11.7188
>0,	-11.7189
Ai	-11.719
▁propylene	-11.719
▁agitation	-11.7191
▁340	-11.7192
▁synchrotron	-11.7195
▁irrigation	-11.7195
▁0.16	-11.7197
▁exchangers	-11.7198
▁Treatment	-11.7199
Bio	-11.7199
▁Louis	-11.7199
▁deuterium	-11.72
▁biosensors	-11.7208
parameter	-11.7208
▁Future	-11.7215
▁blended	-11.7216
GE	-11.7216
▁Brazil	-11.722
pro	-11.7221
▁AG	-11.7222
also	-11.7223
▁mitigation	-11.7224
(4-	-11.7224
▁5.2	-11.7226
▁strike	-11.7226
GR	-11.7227
▁twinning	-11.7228
▁gravitational	-11.7232
;&	-11.7234
▁2011;	-11.7234
▁ridge	-11.7236
▁bismuth	-11.7237
rr	-11.7242
▁HeLa	-11.7246
2,...,	-11.725
▁wedge	-11.725
▁acquire	-11.7251
▁organs	-11.7254
ent	-11.7255
▁retrieved	-11.7256
▁divalent	-11.7257
▁coexistence	-11.7257
▁suitability	-11.726
▁prevention	-11.7264
▁submitted	-11.7264
▁Middle	-11.7265
72	-11.7267
▁PAN	-11.7267
▁adopting	-11.7267
▁rigorous	-11.7267
▁EPS	-11.7268
▁probed	-11.7268
▁sewage	-11.7269
▁Netherlands	-11.727
▁wherein	-11.7271
ZSM	-11.7274
▁0.85	-11.7278
▁2014	-11.7279
‘	-11.728
▁refrigerant	-11.7282
▁slabs	-11.7285
▁replicates	-11.7287
▁overlapped	-11.729
▁averages	-11.7291
▁discretized	-11.7291
▁MTT	-11.7292
▁Any	-11.7293
▁layout	-11.7294
BSA	-11.7298
▁tropical	-11.7303
▁friendly	-11.7303
▁polysaccharide	-11.7304
after	-11.7304
▁radioactive	-11.7306
▁emitter	-11.7307
solution	-11.7311
loss	-11.7315
▁biomolecules	-11.7322
▁Department	-11.7322
-6-	-11.7323
▁ecosystems	-11.7329
▁bank	-11.7332
lived	-11.7334
▁tyrosine	-11.7337
nitro	-11.7337
▁hair	-11.7339
▁Tri	-11.7339
pa	-11.734
ck	-11.734
▁receive	-11.734
120	-11.734
▁collecting	-11.7341
▁smoothly	-11.7342
▁zigzag	-11.7343
▁Varian	-11.7347
▁insensitive	-11.7348
MgO	-11.7349
–6	-11.7349
diphenyl	-11.7351
con	-11.7356
▁PZT	-11.7356
▁2–4	-11.736
▁favors	-11.736
IM	-11.7365
lim	-11.7366
▁2006;	-11.7369
▁interests	-11.7376
▁discarded	-11.738
▁[19].	-11.7381
▁distortions	-11.7381
coupled	-11.7382
▁magnetron	-11.7385
▁undergoing	-11.7385
▁1.00	-11.7387
▁serial	-11.7388
▁ensuring	-11.7388
▁suppliers	-11.7389
PG	-11.7389
05	-11.7391
▁inflow	-11.7394
▁ECM	-11.7395
▁remainder	-11.7397
▁neighbouring	-11.7397
▁inactivation	-11.7397
▁intervention	-11.7398
sphere	-11.7408
▁welded	-11.7409
▁Pure	-11.7412
DP	-11.7413
▁TGF	-11.7414
▁BS	-11.7416
▁pyrrole	-11.7419
▁trained	-11.742
▁placement	-11.7421
▁duplex	-11.7421
▁unloading	-11.7423
through	-11.7424
▁Third	-11.7424
graphene	-11.7425
▁cyclo	-11.7425
▁instabilities	-11.7428
▁1999	-11.7429
▁aerosols	-11.7429
▁tables	-11.7431
consistent	-11.7431
▁cycloaddition	-11.7432
▁December	-11.7435
more	-11.7439
we	-11.744
▁2006	-11.745
▁aliquots	-11.745
▁convenience	-11.7451
▁sole	-11.7451
Am	-11.7452
▁MIP	-11.7454
▁bridged	-11.7456
▁inertial	-11.7457
esterification	-11.7458
▁bend	-11.7459
▁repeatability	-11.7459
▁reading	-11.746
▁hydrolyzed	-11.7462
▁Initial	-11.7464
▁superoxide	-11.7465
▁agglomerates	-11.7467
▁66	-11.7472
▁recognize	-11.7472
-5),	-11.7472
▁string	-11.7473
▁sparse	-11.7474
▁crosslinked	-11.7475
either	-11.748
+1−	-11.7485
99	-11.7485
1000	-11.7485
polarized	-11.7486
Vi	-11.7487
▁depended	-11.7488
Hf	-11.749
▁cos	-11.7491
AF	-11.7492
▁accessibility	-11.7493
▁deprotonation	-11.7498
▁(001)	-11.7501
▁{1	-11.7504
]=	-11.7505
▁1400	-11.7506
▁expense	-11.7506
dry	-11.7512
thio	-11.7514
▁innovation	-11.7515
FC	-11.7516
▁possessed	-11.7518
▁ideas	-11.7522
▁SAR	-11.7522
ane	-11.7524
▁Kim	-11.7525
▁worked	-11.7525
▁accidents	-11.7525
▁biased	-11.7528
▁Addition	-11.7529
▁Concerning	-11.753
▁institutional	-11.7532
▁TFA	-11.7533
▁neighborhood	-11.7536
▁MMP	-11.7537
▁MEA	-11.7542
▁hypotheses	-11.7543
▁von	-11.7545
▁PSO	-11.7545
▁Significant	-11.7546
▁facilitating	-11.7547
▁4.7	-11.7548
▁(∼	-11.7549
4%	-11.7549
▁GmbH	-11.7551
▁oceanic	-11.7555
▁algal	-11.7556
▁0.005	-11.7558
▁[20].	-11.7558
PB	-11.7559
▁tune	-11.756
▁Brillouin	-11.756
▁arms	-11.7562
▁volatility	-11.7565
▁VB	-11.7566
▁6.6	-11.7567
4)3	-11.7568
▁fibrous	-11.7569
▁differed	-11.7569
▁Auger	-11.7569
▁Use	-11.7572
▁aureus	-11.7573
62	-11.7575
▁NCH	-11.7576
▁(22)	-11.7577
▁filaments	-11.758
▁sent	-11.758
▁suction	-11.7582
▁resembles	-11.7584
2|	-11.7584
▁CPU	-11.7584
▁insert	-11.7585
▁8.8	-11.7585
12(	-11.7585
▁olefin	-11.7586
▁6.3	-11.7587
nn	-11.759
▁superimposed	-11.759
▁Afterwards	-11.7591
▁depression	-11.7591
▁fungal	-11.7594
▁5.4	-11.7598
▁simulator	-11.76
▁PW	-11.7602
between	-11.761
▁tan	-11.7611
▁exercise	-11.7611
2∂	-11.7612
▁tilted	-11.7613
▁postulated	-11.7618
▁selenium	-11.762
▁0.07	-11.7622
▁sought	-11.7624
▁credit	-11.7624
▁DOC	-11.7624
▁forests	-11.7625
▁Starting	-11.7628
▁fungi	-11.763
▁98%	-11.7632
▁Magnetic	-11.7632
lower	-11.7635
▁BH	-11.7636
▁operates	-11.7636
700	-11.7638
▁try	-11.7638
▁evolve	-11.764
▁happen	-11.7644
res	-11.7647
SG	-11.7651
=6	-11.7654
▁adoption	-11.7655
▁MJ	-11.7656
▁taxa	-11.7657
▁micellar	-11.7658
▁MgCl	-11.766
▁classic	-11.7662
+3	-11.7662
▁respondents	-11.7672
▁[7]	-11.7677
▁fluorinated	-11.7677
▁fixation	-11.768
▁homogeneously	-11.7681
▁argue	-11.7683
function	-11.7684
▁SWNTs	-11.7687
▁attain	-11.7697
▁chromosome	-11.7699
▁platforms	-11.7699
▁evaluations	-11.77
▁nucleotide	-11.77
▁assist	-11.7702
▁Gram	-11.7702
-3′	-11.7705
▁implants	-11.7708
▁exerted	-11.771
▁General	-11.7711
▁7-	-11.7713
|2	-11.7713
▁rewritten	-11.7713
▁fishing	-11.7715
responsive	-11.7717
nt	-11.7718
▁citric	-11.7718
▁symptoms	-11.7719
▁tended	-11.7719
▁word	-11.772
generated	-11.7722
▁intercalated	-11.7722
▁interfere	-11.7723
2+2	-11.7726
5/2	-11.7726
▁metabolite	-11.7728
▁Metal	-11.7734
SL	-11.7736
▁distinction	-11.7737
▁laminated	-11.774
▁optoelectronic	-11.7741
▁olivine	-11.7742
▁determinations	-11.7742
ext	-11.7748
▁CYP	-11.7753
▁couples	-11.7753
▁(2).	-11.7755
▁Fluorescence	-11.7756
▁therein	-11.7757
▁dimeric	-11.7758
purity	-11.7758
▁ECL	-11.7761
TB	-11.7761
▁perception	-11.7763
▁expanding	-11.7763
▁lipase	-11.7763
sheet	-11.7765
▁preserve	-11.777
Teller	-11.7771
rad	-11.7771
▁chromatograph	-11.7771
mo	-11.7775
▁cytokines	-11.7776
▁11,	-11.7777
▁[23]	-11.778
case	-11.7781
▁biodegradation	-11.7782
▁augmented	-11.7783
▁nonzero	-11.779
▁SEI	-11.779
▁viewpoint	-11.7793
▁disadvantage	-11.7793
source	-11.7793
YSZ	-11.7796
▁item	-11.7798
▁par	-11.7799
▁resistive	-11.7799
▁tris	-11.7803
▁planned	-11.7804
▁Tl	-11.7805
123	-11.7807
▁sin	-11.781
▁abundances	-11.7811
5(	-11.7812
processing	-11.7813
▁293	-11.7815
-4),	-11.7815
▁earthquakes	-11.7819
ax	-11.782
▁silicone	-11.7821
▁equilibria	-11.7821
∀	-11.7821
▁eco	-11.7823
▁returned	-11.7824
LT	-11.7824
▁spike	-11.7826
▁habitat	-11.7826
▁projections	-11.7828
▁regulating	-11.7831
▁DO	-11.7832
▁ND	-11.7834
▁associations	-11.7834
magnetic	-11.7834
▁subduction	-11.7834
▁proximal	-11.7835
▁ELISA	-11.7836
▁Not	-11.7836
▁exciting	-11.7838
▁sunlight	-11.7839
▁twist	-11.7839
Ne	-11.7839
ME	-11.784
▁thorough	-11.7841
▁harmonics	-11.7843
ve	-11.7845
▁buffered	-11.7845
▁nanospheres	-11.7846
12+	-11.7849
acac	-11.7849
▁surprisingly	-11.785
)]+	-11.7851
▁ray	-11.7852
▁fibroblasts	-11.7853
▁Beijing	-11.7858
▁databases	-11.7859
▁FeCl	-11.7865
▁les	-11.7865
▁2000)	-11.7868
▁agriculture	-11.7869
▁Light	-11.7872
▁neuron	-11.7873
▁(13	-11.7874
▁attenuated	-11.7876
▁(80	-11.7878
▁SST	-11.7882
COD	-11.7883
▁chance	-11.7885
▁magnetically	-11.7885
dominated	-11.7885
▁restrictions	-11.7886
0.75	-11.7887
▁5.3	-11.7889
▁descriptors	-11.7891
▁3–5	-11.7894
▁0.65	-11.7895
▁plotting	-11.7895
▁honeycomb	-11.7898
▁nanorod	-11.7898
▁topographic	-11.7899
LR	-11.79
▁0.17	-11.79
wavelength	-11.7902
ddd	-11.7903
▁(23)	-11.7903
▁oscillating	-11.7904
▁budget	-11.7907
tBu	-11.7908
▁powers	-11.7911
shape	-11.7912
▁RMSE	-11.7912
▁brings	-11.7912
▁subtracted	-11.7913
▁variational	-11.7915
▁MRI	-11.7918
▁recommendations	-11.7918
fuel	-11.7919
▁0.001)	-11.7921
▁Environmental	-11.7928
▁illustration	-11.7928
▁oxidase	-11.7929
infrared	-11.793
▁ferric	-11.7931
▁(18	-11.7937
▁antibiotic	-11.7938
▁hazardous	-11.7939
▁Examples	-11.7941
▁foot	-11.7944
▁316	-11.7948
▁Previously	-11.7951
▁subtle	-11.7953
▁labels	-11.7954
▁xi	-11.7957
84	-11.7957
▁restoration	-11.7961
▁apatite	-11.7965
▁Direct	-11.7965
⁡(	-11.7965
-11	-11.7966
▁brightness	-11.797
GFP	-11.7971
▁melted	-11.7973
▁necessity	-11.7974
▁Schottky	-11.7976
mp	-11.7979
▁formate	-11.798
▁HV	-11.7982
▁1970	-11.7982
▁abstraction	-11.7983
▁Southern	-11.7983
▁capacitors	-11.7987
▁think	-11.7991
▁stroke	-11.7992
”)	-11.7992
▁smoothing	-11.7994
▁Wu	-11.7995
▁homogenized	-11.7998
5).	-11.7999
RR	-11.8
▁subtracting	-11.8001
No	-11.8001
▁[3]	-11.8002
▁Subsequent	-11.8003
▁fails	-11.8004
▁2,6-	-11.8005
WT	-11.8005
▁Schiff	-11.8006
▁7.1	-11.8006
+1=	-11.8006
▁arrival	-11.8008
▁platelet	-11.8014
▁cited	-11.8016
▁reuse	-11.8016
▁flooding	-11.8017
▁conditioned	-11.8018
▁squared	-11.8019
▁(16	-11.8019
▁10).	-11.802
▁globally	-11.802
▁amphiphilic	-11.8022
dis	-11.8023
▁systemic	-11.8025
▁retrieval	-11.8026
ry	-11.8027
▁Field	-11.8028
▁[8]	-11.8028
▁sandstone	-11.8031
▁azo	-11.8032
▁smoke	-11.8035
▁really	-11.8037
▁DMA	-11.8039
▁consequent	-11.8039
▁Mt	-11.8039
▁(250	-11.804
▁halides	-11.8042
series	-11.8043
▁histogram	-11.8044
▁shortening	-11.8046
limited	-11.8048
▁65%	-11.8053
▁injector	-11.8054
▁Cys	-11.8054
▁0.13	-11.8055
ee	-11.8056
▁winds	-11.8059
▁(27)	-11.806
▁vigorous	-11.8061
▁}}	-11.8061
▁omitted	-11.8062
▁organo	-11.8062
▁cake	-11.8063
▁endo	-11.8064
▁clouds	-11.8066
8%	-11.8066
▁polypropylene	-11.8067
▁SWCNTs	-11.8068
▁TiC	-11.8071
▁finds	-11.8072
▁[22].	-11.8073
▁[24]	-11.8075
bit	-11.8076
▁preparations	-11.8079
0),	-11.808
GS	-11.8081
▁stems	-11.8082
VS	-11.8083
nc	-11.8084
▁achievable	-11.8085
▁nevertheless	-11.8085
▁enlarged	-11.8088
layered	-11.8089
house	-11.8089
▁fifth	-11.809
▁175	-11.8091
▁(6),	-11.8092
▁HSA	-11.8094
NIR	-11.8096
▁albeit	-11.8099
	-11.8102
uj	-11.8103
▁2004	-11.8104
▁tons	-11.8105
▁abrasive	-11.8106
tube	-11.8109
▁[9]	-11.811
)3(	-11.811
▁extracting	-11.811
▁olefins	-11.8111
	-11.8116
▁NN	-11.8118
ary	-11.8119
load	-11.8121
ek	-11.8124
▁viz	-11.8125
Stokes	-11.8125
▁mononuclear	-11.8125
▁GF	-11.8125
▁rim	-11.8126
▁‖	-11.8127
∧	-11.8127
est	-11.8128
▁elucidated	-11.8133
▁[21].	-11.8134
▁enthalpies	-11.8134
▁Triton	-11.8134
▁POM	-11.8135
▁coals	-11.8135
ier	-11.8135
RI	-11.8138
▁Development	-11.8139
59	-11.8143
2%	-11.8145
▁0.28	-11.8146
SBA	-11.8146
▁0.24	-11.8146
▁Ka	-11.8147
▁latitude	-11.8149
▁gram	-11.815
ies	-11.8151
▁inference	-11.8151
▁caspase	-11.8151
▁document	-11.8152
▁SOFC	-11.8157
▁0.14	-11.8157
▁catalyze	-11.8163
▁appropriately	-11.8164
BB	-11.8165
▁8.3	-11.8168
09	-11.8169
approximately	-11.817
▁vein	-11.817
▁lakes	-11.8172
▁[12]	-11.8173
▁96-	-11.8177
▁exploring	-11.8179
▁Eg	-11.818
▁strands	-11.8181
▁sterile	-11.8183
▁330	-11.8185
▁motivated	-11.8187
▁imine	-11.8187
▁Combining	-11.8187
▁transfected	-11.819
▁loose	-11.8193
▁0),	-11.8193
2@	-11.8198
▁micropores	-11.8198
EL	-11.8203
▁compartments	-11.8204
3%	-11.8205
▁boiler	-11.8205
▁cerium	-11.8206
▁2005;	-11.8209
69	-11.8219
▁9.5	-11.8219
▁pKa	-11.8219
▁(25)	-11.822
FS	-11.8222
▁2005).	-11.8223
▁regards	-11.8225
▁∼5	-11.8227
▁sex	-11.8228
▁67	-11.8228
▁LT	-11.8229
lo	-11.8232
▁(14	-11.8233
▁78	-11.8236
zone	-11.8237
▁grouped	-11.8237
▁0%	-11.8237
▁ATR	-11.824
block	-11.8241
▁Transmission	-11.8242
▁tomography	-11.8242
▁tap	-11.8243
▁2003	-11.8247
pure	-11.8247
▁bent	-11.8247
▁Bayesian	-11.8251
▁annihilation	-11.8251
82	-11.8255
▁(11	-11.8257
▁gear	-11.8258
▁border	-11.8262
local	-11.8262
▁broadened	-11.8265
▁pK	-11.8266
▁symbol	-11.8266
▁reversibility	-11.8269
ip	-11.8271
▁magnets	-11.8277
▁manure	-11.8278
thickness	-11.8278
▁concave	-11.8279
▁Philips	-11.8282
▁colonies	-11.8283
▁shearing	-11.8284
▁stretched	-11.8286
ND	-11.8286
displacement	-11.8287
}.	-11.8288
▁FTO	-11.829
▁sonicated	-11.8292
▁gross	-11.8292
▁Kit	-11.8293
–20	-11.8294
Os	-11.8296
▁Particularly	-11.8296
dipole	-11.8296
▁vitamin	-11.8297
Fs	-11.8297
▁batches	-11.8303
▁Flow	-11.8304
HPO	-11.8305
kx	-11.8307
TF	-11.8309
▁turbidity	-11.831
▁Zone	-11.8312
▁hydrophilicity	-11.8312
▁DB	-11.8314
▁dependencies	-11.8315
▁coding	-11.8318
particles	-11.8319
▁Along	-11.8324
ide	-11.8324
▁colloids	-11.8329
▁house	-11.8333
▁pct	-11.8334
▁About	-11.8338
▁[4]	-11.8339
▁Otherwise	-11.8342
77	-11.8345
emission	-11.8345
▁BD	-11.8346
▁PSD	-11.8348
MH	-11.8349
▁promise	-11.835
▁ZSM	-11.835
EDX	-11.8354
optical	-11.8355
▁0.33	-11.8358
▁infections	-11.8358
▁lime	-11.8359
▁ultrathin	-11.8359
▁ALD	-11.8361
▁950	-11.8362
=0)	-11.8364
▁indenter	-11.8365
▁esterification	-11.8365
?>	-11.8367
▁Structural	-11.8368
▁oxo	-11.837
▁pyrene	-11.8373
▁mine	-11.8377
▁drought	-11.8378
▁magmatic	-11.8379
▁default	-11.838
▁dotted	-11.8386
DG	-11.8392
▁resonator	-11.8393
▁SCE	-11.8393
▁adjustable	-11.8394
(6)	-11.8394
)=0,	-11.8395
ut	-11.8396
▁guidance	-11.8401
▁slices	-11.8404
ED	-11.8406
corresponding	-11.8406
▁renal	-11.8407
–3	-11.8407
▁10°	-11.8409
▁3.9	-11.8411
▁blending	-11.8412
▁acted	-11.8413
▁capped	-11.8413
qi	-11.8414
GCE	-11.8418
▁prism	-11.8421
▁CW	-11.8423
1]	-11.8427
he	-11.8428
▁conformer	-11.843
▁fillers	-11.843
▁Milli	-11.8431
withdrawing	-11.8434
▁crown	-11.8436
▁intriguing	-11.8438
▁modifier	-11.8439
▁0.5,	-11.8439
▁2,4-	-11.8444
▁bipolar	-11.8445
▁conflict	-11.8446
▁explaining	-11.8447
▁want	-11.8449
consuming	-11.8452
▁Ha	-11.8452
▁[25]	-11.8453
▁[13]	-11.8455
OC	-11.846
▁resuspended	-11.8461
▁Reagent	-11.8462
▁Gr	-11.8462
▁harvest	-11.8463
▁scientists	-11.8466
▁[23].	-11.8466
▁cyanide	-11.8467
▁Asia	-11.8469
▁[6]	-11.8469
▁extrapolated	-11.8469
2000	-11.8469
▁exploit	-11.8472
ky	-11.8476
▁45%	-11.8476
▁sputter	-11.8477
▁Pe	-11.8477
▁press	-11.8479
pore	-11.8481
▁strained	-11.8481
▁Tyr	-11.8483
▁spontaneously	-11.8483
▁files	-11.8484
▁obstacle	-11.8485
bp	-11.8487
formed	-11.8489
▁marks	-11.849
▁Surprisingly	-11.8493
SM	-11.8495
▁VOC	-11.8495
$	-11.8496
▁unsteady	-11.8498
▁Gulf	-11.8499
▁peroxidase	-11.85
▁Pleistocene	-11.8504
▁monotonic	-11.8504
▁TF	-11.8505
▁Applying	-11.8507
▁dendrimers	-11.8509
▁cages	-11.851
tt	-11.851
▁Laboratories	-11.8512
▁crushed	-11.8512
▁Health	-11.8513
▁unoccupied	-11.8517
▁indole	-11.8521
▁aerodynamic	-11.8522
▁macromolecules	-11.8522
76	-11.8526
io	-11.8528
▁supercell	-11.8531
▁assemblage	-11.8532
▁flakes	-11.8532
ize	-11.8533
▁burn	-11.8538
▁regenerated	-11.854
▁1300	-11.854
▁discharging	-11.8542
▁statement	-11.8542
▁discs	-11.8543
▁stakeholders	-11.8544
▁98	-11.8544
▁alkylation	-11.8546
▁transistor	-11.8546
WS	-11.8548
Invitrogen	-11.855
head	-11.855
▁defective	-11.8551
established	-11.8552
▁repeating	-11.8552
this	-11.8552
▁GPS	-11.8553
maximum	-11.8554
▁IM	-11.8555
▁uplift	-11.8556
▁paired	-11.8557
▁asked	-11.8559
▁harmful	-11.8559
pt	-11.856
▁generations	-11.8561
▁heuristic	-11.8565
characterisation	-11.8566
▁switches	-11.857
▁longest	-11.857
▁migrate	-11.8573
DT	-11.8577
▁rear	-11.8577
▁opens	-11.8578
▁[5]	-11.8582
▁Rietveld	-11.8582
▁clays	-11.8584
▁6.2	-11.8584
▁microchannel	-11.8585
▁males	-11.8586
▁relief	-11.8588
▁nanofluid	-11.8591
▁rabbit	-11.8591
▁6.7	-11.8592
▁genus	-11.8596
▁restrict	-11.8598
08	-11.8599
▁PEC	-11.8599
▁optimised	-11.86
▁HD	-11.8601
ionic	-11.8602
▁LCA	-11.861
around	-11.861
▁Indian	-11.8614
▁heterojunction	-11.8616
▁DW	-11.8618
▁aliquot	-11.862
▁sieve	-11.8621
9%	-11.8622
▁[],	-11.8623
connected	-11.8627
▁reporter	-11.8627
AD	-11.8629
▁problematic	-11.8629
▁strict	-11.8634
▁standardized	-11.8637
▁acrylic	-11.8637
▁ionized	-11.8637
▁deals	-11.8639
▁proposal	-11.8639
▁tar	-11.8639
acetone	-11.8639
▁lean	-11.8639
▁SVM	-11.8641
▁descriptions	-11.8644
▁wing	-11.8645
CdS	-11.8645
▁November	-11.8649
▁Mean	-11.865
objective	-11.8652
▁portable	-11.8653
SiMe	-11.8658
▁[15]	-11.866
BE	-11.8662
▁education	-11.8666
▁converged	-11.8666
ether	-11.8669
▁constituted	-11.8676
AES	-11.8676
Thermo	-11.8677
▁eliminating	-11.8681
▁mica	-11.8681
▁(24)	-11.869
▁Cartesian	-11.869
▁traction	-11.8693
EP	-11.8694
ba	-11.8695
▁Switzerland	-11.8695
▁380	-11.8696
LUMO	-11.8697
▁−2	-11.8698
▁programmed	-11.8699
▁mJ	-11.8699
▁interatomic	-11.87
▁tailored	-11.87
▁Bu	-11.8703
▁stirrer	-11.8704
▁Sciences	-11.8705
▁scavenging	-11.8705
▁recall	-11.8707
gi	-11.8707
EM	-11.8708
▁59	-11.871
▁Ch	-11.8712
au	-11.8713
▁alkyne	-11.8713
face	-11.8715
▁knee	-11.8716
▁sapphire	-11.8716
▁PLGA	-11.8718
▁Cambridge	-11.872
glucose	-11.8723
▁viruses	-11.8726
sat	-11.8727
▁Ex	-11.8728
▁FRP	-11.8729
▁generalization	-11.8733
▁20°	-11.8734
opt	-11.8735
▁Between	-11.8737
▁Having	-11.8737
▁emerge	-11.8738
▁DH	-11.874
▁Long	-11.8741
▁Maximum	-11.8743
▁tax	-11.8743
▁piston	-11.8744
▁7.7	-11.8745
▁Ab	-11.8745
▁DMEM	-11.8747
▁stratification	-11.8748
▁Sections	-11.8751
▁IT	-11.8752
▁υ	-11.8754
▁fringes	-11.8755
▁tetrahedra	-11.8758
▁export	-11.876
via	-11.876
dihydro	-11.8762
ts	-11.8763
▁nanofluids	-11.8765
▁preferable	-11.8766
▁putative	-11.877
▁modulate	-11.8772
▁raise	-11.8772
▁0.32	-11.8773
▁0.09	-11.8773
▁merely	-11.8776
black	-11.8777
▁colored	-11.8778
▁Nyquist	-11.8781
LDH	-11.8782
response	-11.8785
▁thio	-11.8787
ler	-11.8787
▁apoptotic	-11.8788
+]	-11.8788
▁displaying	-11.879
▁evenly	-11.8792
▁adults	-11.8793
▁superconductors	-11.8793
▁coils	-11.8794
▁person	-11.8796
▁summarised	-11.8796
9)	-11.8798
▁Program	-11.88
▁illuminated	-11.8802
–15	-11.8803
ks	-11.8803
▁SWCNT	-11.8804
▁martensitic	-11.8805
sinh	-11.8806
▁Corp	-11.8807
▁landfill	-11.8808
▁uncoated	-11.8812
▁synchronization	-11.8814
ITO	-11.8817
EX	-11.8818
▁airflow	-11.8818
▁Notice	-11.8819
▁6.9	-11.8822
▁carbohydrates	-11.8823
▁IF	-11.8823
=0.1	-11.8824
▁cortex	-11.8828
▁foreign	-11.8828
lying	-11.883
pulse	-11.8831
▁NG	-11.8832
▁plans	-11.8834
6):	-11.8834
-17	-11.8838
▁chelate	-11.8841
De	-11.8842
activity	-11.8843
▁pyramidal	-11.8844
▁centrifugal	-11.8846
▁0.55	-11.8847
pyridyl	-11.8848
▁compete	-11.8849
▁broadly	-11.8857
▁interfering	-11.8859
▁0.40	-11.8859
bulk	-11.886
▁(70	-11.8861
▁homogenization	-11.8862
▁supersaturation	-11.8862
▁card	-11.8864
▁slice	-11.8865
▁radar	-11.8865
▁Taiwan	-11.8867
▁dinuclear	-11.8868
▁doing	-11.8868
▁billion	-11.8869
TPP	-11.887
▁0.11	-11.8871
▁2012;	-11.8871
▁copy	-11.8873
▁carcinoma	-11.8874
▁unfavorable	-11.8876
▁packaging	-11.8877
▁532	-11.8878
tic	-11.8879
▁[24].	-11.888
▁Committee	-11.8881
▁respiratory	-11.8881
▁microalgae	-11.8882
▁Am	-11.8883
)-1	-11.8884
▁pigment	-11.8887
Model	-11.8889
▁intestinal	-11.8891
▁walking	-11.8892
▁exert	-11.8893
▁kWh	-11.8902
IN	-11.8904
▁colony	-11.8904
▁Ultra	-11.8905
▁5.8	-11.8905
▁Suppose	-11.8906
▁agarose	-11.8906
▁EV	-11.8908
TD	-11.891
▁margins	-11.8913
▁economically	-11.8915
/100	-11.8915
▁Cyclic	-11.8915
▁younger	-11.8916
▁osmotic	-11.8917
▁(125	-11.8919
·(	-11.8923
▁(<	-11.8923
-3),	-11.8924
96	-11.8925
▁explosive	-11.893
▁transients	-11.8931
GP	-11.8932
(1)–	-11.8933
▁LD	-11.8934
ct	-11.8935
2′	-11.8938
∗,	-11.8938
▁10−7	-11.894
▁AT	-11.8941
▁approached	-11.8941
▁versions	-11.8941
▁Newton	-11.8942
CVD	-11.8942
▁folded	-11.8943
▁perturbed	-11.8945
▁exploitation	-11.8945
▁Ion	-11.8945
▁[14]	-11.8945
▁digested	-11.8945
cosh	-11.8946
)+(	-11.8946
ˆ(	-11.895
▁2001	-11.8953
▁collectors	-11.8954
▁incompressible	-11.8955
▁cf	-11.8955
▁ppb	-11.8955
ms	-11.8956
▁dryness	-11.8957
▁(110)	-11.8957
principles	-11.8958
▁1:2	-11.8958
▁0.98	-11.8962
▁Linear	-11.8962
▁colorimetric	-11.8963
growth	-11.8968
▁Yellow	-11.8968
▁2004;	-11.897
▁pg	-11.8973
▁strata	-11.8974
▁MDA	-11.8976
▁blast	-11.898
▁7%	-11.8982
▁Lin	-11.8984
▁exponents	-11.8986
center	-11.8986
▁stratigraphic	-11.8989
▁stacks	-11.8989
▁PSS	-11.8997
▁cooperation	-11.8998
▁sccm	-11.9
▁views	-11.9002
▁metamorphic	-11.9003
▁discharges	-11.9006
▁obtains	-11.9008
▁Chemicals	-11.9009
▁biofuel	-11.9009
DI	-11.901
▁referenced	-11.9013
▁alkenes	-11.9013
▁predictor	-11.9013
79	-11.9014
▁dynamically	-11.9014
▁epoxide	-11.9016
▁altering	-11.9016
▁(>	-11.9017
▁enantiomers	-11.9017
▁organizations	-11.9019
▁2015	-11.902
6;	-11.902
▁respiration	-11.9022
▁exo	-11.9022
▁searching	-11.9024
▁intrusion	-11.9024
▁projectile	-11.9025
▁observer	-11.9025
▁Like	-11.9026
▁actively	-11.9028
▁Glu	-11.9029
▁suppose	-11.9029
▁dis	-11.9032
▁twisted	-11.9034
7%	-11.9034
nk	-11.9036
▁advection	-11.9037
▁Ser	-11.9037
▁compressibility	-11.9043
▁shed	-11.9044
FL	-11.9044
▁paraffin	-11.9045
▁exogenous	-11.9045
▁foils	-11.9046
▁managers	-11.9048
▁cytochrome	-11.9051
target	-11.9053
▁keeps	-11.9055
▁(3).	-11.9055
▁pesticides	-11.9057
▁DT	-11.9057
▁abilities	-11.9058
▁FR	-11.9059
▁fruit	-11.9061
▁SWNT	-11.9062
▁trivial	-11.9064
▁custom	-11.9064
DR	-11.9065
▁stabilities	-11.9066
≃	-11.9067
▁executed	-11.9069
▁hydrogenated	-11.907
▁obstacles	-11.9075
▁destroyed	-11.9077
▁290	-11.9078
PAGE	-11.9078
▁lithography	-11.9086
▁Sp	-11.9088
▁∼2	-11.9088
▁jets	-11.909
▁strategic	-11.909
▁Solar	-11.9094
▁laminate	-11.9094
▁VS	-11.9094
▁0.2%	-11.9094
▁preferences	-11.9094
DF	-11.9096
▁adopts	-11.9096
▁Particle	-11.9099
CM	-11.91
▁CAD	-11.9101
▁deprotonated	-11.9102
▁hypothetical	-11.9104
▁derivatization	-11.9106
▁releasing	-11.9107
MR	-11.9108
-2),	-11.9109
▁prevalence	-11.9111
photodegradation	-11.9115
▁instant	-11.9115
0.15	-11.9116
▁Ri	-11.9116
▁Park	-11.9119
▁scarce	-11.912
12)	-11.9124
▁(7),	-11.9125
▁dominance	-11.9126
▁Spectra	-11.9127
▁HB	-11.9129
▁TEOS	-11.9132
▁480	-11.9133
▁polymerase	-11.9133
▁Infrared	-11.9135
▁unambiguously	-11.9136
bridged	-11.9137
▁Rigaku	-11.9137
▁[18]	-11.9137
−3)	-11.9138
limiting	-11.9138
▁Maxwell	-11.9145
▁machined	-11.9146
▁TPD	-11.9147
▁impregnated	-11.9148
▁terrace	-11.9153
donor	-11.9155
▁coarsening	-11.9155
output	-11.9156
▁eruption	-11.9158
▁correspondingly	-11.9158
▁peat	-11.9158
parallel	-11.9158
▁finished	-11.9161
▁HRP	-11.9162
▁bioreactor	-11.9163
ist	-11.9167
▁IN	-11.9169
▁THz	-11.9169
▁sulfides	-11.9169
▁penicillin	-11.917
▁carbonization	-11.9173
▁10.5	-11.9174
▁subsystem	-11.9174
▁Upper	-11.9176
▁ensured	-11.9177
▁assessments	-11.9177
▁replicate	-11.9178
▁RhB	-11.9178
▁ON	-11.9179
▁geographical	-11.9179
▁rays	-11.918
alumina	-11.918
PANI	-11.9182
▁promotion	-11.9184
▁political	-11.9184
▁housing	-11.9185
-18	-11.9185
▁medicinal	-11.9188
▁transfers	-11.919
▁mentioning	-11.9192
▁burst	-11.9193
▁Algorithm	-11.9193
↑	-11.9195
▁ethane	-11.92
▁2500	-11.92
▁meters	-11.9201
▁Letter	-11.9202
pair	-11.9203
▁organometallic	-11.9203
▁exterior	-11.9205
contact	-11.9205
fl	-11.9206
‰	-11.9207
▁echo	-11.9208
▁embryos	-11.9208
▁QC	-11.9209
kj	-11.9214
▁halo	-11.9214
▁folds	-11.9215
chip	-11.9215
▁tiny	-11.9221
heating	-11.9221
stream	-11.9223
▁regularly	-11.9226
▁Pareto	-11.923
▁UC	-11.9233
▁hydrological	-11.9234
▁speaking	-11.9235
benzo	-11.9237
▁tanks	-11.9237
are	-11.9238
critical	-11.9239
▁Super	-11.9241
▁vision	-11.9247
▁stimulate	-11.9248
▁Consistent	-11.9248
▁photocatalysis	-11.925
denoted	-11.925
▁claimed	-11.9251
▁chart	-11.9253
▁[25].	-11.9254
▁5),	-11.9256
▁stopping	-11.926
▁MeCN	-11.9263
▁converting	-11.9264
▁10(	-11.9264
ordered	-11.9265
▁inductively	-11.9265
▁quench	-11.9266
▁[17]	-11.9266
▁influent	-11.927
enhanced	-11.9271
▁archaeological	-11.9273
▁contaminant	-11.9273
)×	-11.9275
▁origins	-11.9276
▁2003;	-11.9277
ter	-11.9283
▁mN	-11.9283
pc	-11.9284
▁periphery	-11.9284
▁perchlorate	-11.9285
LD	-11.9286
▁76	-11.9288
▁SCC	-11.9288
▁gypsum	-11.929
†),	-11.9292
▁confirmation	-11.9293
=1−	-11.9293
▁assistance	-11.9295
▁cytoplasm	-11.9299
▁Ci	-11.9299
▁rhodium	-11.93
CuO	-11.9302
▁muscles	-11.9303
▁textile	-11.9303
▁assayed	-11.9305
▁employs	-11.9306
▁chromophores	-11.9313
10)	-11.9313
▁Navier	-11.9315
cells	-11.932
▁powdered	-11.9322
▁artifacts	-11.9324
▁inferior	-11.9325
▁embedding	-11.9325
▁microhardness	-11.9325
/2)	-11.9326
Lu	-11.9326
DMA	-11.9326
▁multilayers	-11.933
07	-11.9335
▁Brønsted	-11.9335
▁gravimetric	-11.9336
▁8.7	-11.9336
▁decoupling	-11.9337
▁Santa	-11.9337
▁fate	-11.9338
tip	-11.9339
▁dendrimer	-11.9339
▁VEGF	-11.9343
pz	-11.9343
▁symmetries	-11.9345
▁RI	-11.9345
▁flotation	-11.9345
▁nanoporous	-11.9346
▁thereafter	-11.9347
▁photoemission	-11.9351
▁PBE	-11.9353
▁ethers	-11.9353
▁deletion	-11.9354
nuclear	-11.9357
▁maintains	-11.9357
▁dimensionality	-11.9357
↓	-11.9358
-16	-11.936
complex	-11.9361
grid	-11.9362
▁patterning	-11.9363
yield	-11.9364
▁Organic	-11.9364
▁maturation	-11.9365
▁phenols	-11.9366
▁heterocyclic	-11.9368
▁accompanying	-11.937
▁stir	-11.937
▁Laplace	-11.9371
▁capsule	-11.9371
▁manufacturers	-11.9374
▁specially	-11.9375
▁oxalate	-11.9375
▁[26].	-11.9377
▁6.1	-11.9379
▁singularity	-11.9381
▁GPC	-11.9381
▁lesions	-11.9382
▁Mössbauer	-11.9385
▁packet	-11.939
▁succession	-11.9391
catalyst	-11.9392
▁atm	-11.9392
▁stressed	-11.9393
lattice	-11.9394
PEO	-11.9395
typically	-11.9396
▁overexpression	-11.9399
ana	-11.9405
▁burner	-11.9406
▁reproduction	-11.9406
⁢	-11.9406
▁partners	-11.9407
8-	-11.941
▁180°	-11.9411
▁⩾	-11.9412
aj	-11.9414
▁0.27	-11.9415
crystallization	-11.9421
▁DLC	-11.9425
▁rating	-11.9428
▁Atomic	-11.9429
▁fluctuating	-11.9431
▁February	-11.9432
▁stereo	-11.9434
▁borehole	-11.9435
▁1996)	-11.9436
▁clarified	-11.9436
▁FBS	-11.9436
▁2002).	-11.9442
stable	-11.9442
1.2	-11.9443
▁costly	-11.9444
▁lose	-11.9447
TMS	-11.9449
▁oxygenated	-11.945
▁maturity	-11.9452
▁hepatic	-11.9452
▁0.26	-11.9455
▁Photo	-11.9455
▁evacuated	-11.9458
$$	-11.946
▁district	-11.9461
MoS	-11.9461
▁[18	-11.9461
▁society	-11.9462
▁128	-11.9466
▁trypsin	-11.9466
▁surgery	-11.9473
▁delocalized	-11.9473
▁phosphoric	-11.9474
ates	-11.9477
▁#	-11.9478
▁pose	-11.9479
Gly	-11.948
81	-11.9481
TN	-11.9481
▁triethylamine	-11.9483
RH	-11.9484
DB	-11.9485
▁intermittent	-11.9486
OTf	-11.9487
▁capsules	-11.9487
▁Taken	-11.9487
−3.	-11.9488
▁PEM	-11.9491
▁push	-11.9491
▁photoinduced	-11.9492
▁BaTiO	-11.9493
▁dissociated	-11.9494
)=[	-11.9495
▁arrow	-11.9498
▁Laser	-11.95
▁electrophilic	-11.9502
13,	-11.9503
▁fluvial	-11.9503
▁(4).	-11.9505
▁OS	-11.9507
▁impulse	-11.9507
▁heavier	-11.9508
▁galvanostatic	-11.9508
except	-11.9509
ism	-11.951
HL	-11.951
(001)	-11.951
▁spp	-11.9511
▁pay	-11.9513
▁kinetically	-11.9514
▁TPA	-11.9517
▁RuO	-11.9519
▁regulator	-11.9519
TL	-11.952
▁subsets	-11.952
9;	-11.9523
▁Except	-11.9526
▁racemic	-11.9529
IG	-11.9531
▁RB	-11.9531
▁bcc	-11.9531
▁broth	-11.9532
▁deployment	-11.9533
phenomenological	-11.9533
▁lysozyme	-11.9534
▁Average	-11.9534
▁finger	-11.9535
▁(24	-11.9536
▁polynomials	-11.9537
▁exposures	-11.9538
▁neglect	-11.954
▁terrain	-11.9543
▁Centre	-11.9544
▁MIS	-11.9545
▁2004).	-11.9554
▁granite	-11.9554
▁acrylate	-11.9557
▁[3	-11.9558
planar	-11.9559
▁Foundation	-11.9561
YAG	-11.9563
due	-11.9564
GT	-11.9564
▁0.23	-11.9564
▁vaporization	-11.9564
▁isopropanol	-11.9566
▁135	-11.9566
-1,3-	-11.9568
GaN	-11.9569
▁−10	-11.957
▁tetrahydrofuran	-11.9571
▁indexes	-11.9572
▁PDA	-11.9574
▁neck	-11.9581
×10−3	-11.9581
1∂	-11.9584
5;	-11.9584
▁tooth	-11.9584
▁calorimeter	-11.9585
▁pharmacokinetic	-11.9585
▁Millipore	-11.9586
▁tensors	-11.9586
▁Per	-11.9589
▁bimodal	-11.959
FP	-11.9591
▁(2010)	-11.9593
▁triangles	-11.9595
▁estimations	-11.9595
even	-11.9595
▁desorbed	-11.9596
RC	-11.9596
Ns	-11.9602
▁310	-11.9602
▁leg	-11.9604
▁FO	-11.9605
▁crash	-11.9605
▁hexa	-11.9605
▁Quantum	-11.9607
cal	-11.9608
▁1:	-11.961
▁pathogens	-11.9612
kn	-11.9619
/6	-11.9623
▁ascorbic	-11.9623
LP	-11.9625
-1.	-11.9625
▁chlorides	-11.9626
▁deviate	-11.9632
–13	-11.9634
)∑	-11.9635
▁(0.01	-11.9636
▁lamellae	-11.9641
▁bicarbonate	-11.9643
▁actuators	-11.9644
549	-11.9644
▁bombardment	-11.9647
▁incorporates	-11.9651
▁8.6	-11.9652
▁bottle	-11.9653
acetic	-11.9654
▁automotive	-11.9658
▁crystallography	-11.9658
▁Tafel	-11.9658
▁PLS	-11.9659
sc	-11.9662
▁Arg	-11.9663
▁electrospinning	-11.9663
▁reasoning	-11.9664
▁coat	-11.9665
▁hosts	-11.9665
▁Hu	-11.9667
-6),	-11.9667
▁capturing	-11.9669
▁barium	-11.9669
▁LR	-11.9673
▁MN	-11.9674
▁humid	-11.9675
▁duty	-11.9675
▁Nitrogen	-11.9679
▁meeting	-11.968
▁inhomogeneity	-11.968
LL	-11.968
▁2002;	-11.9681
▁REE	-11.9685
Ex	-11.9687
▁translocation	-11.9689
▁heparin	-11.9689
▁mini	-11.9691
▁2001).	-11.9693
sum	-11.9693
▁visualize	-11.9697
▁profiling	-11.97
▁restored	-11.9701
berg	-11.9702
LM	-11.9706
▁clock	-11.9708
▁1]	-11.9709
▁flasks	-11.971
ce	-11.971
▁pigments	-11.9713
▁enclosed	-11.9717
▁115	-11.9717
▁thinning	-11.9718
heat	-11.972
▁CCS	-11.9722
▁entered	-11.9723
▁textures	-11.9727
▁RR	-11.9731
▁RD	-11.9731
▁nonlocal	-11.9731
▁thermocouples	-11.9732
▁(2.0	-11.9735
meter	-11.9737
−3,	-11.9737
▁dialysis	-11.9737
▁delocalization	-11.9737
mim	-11.9738
▁(0.05	-11.974
▁shot	-11.9741
▁borate	-11.9741
}\	-11.9746
▁twins	-11.9747
▁recruitment	-11.9747
▁moreover	-11.9748
14,	-11.975
▁invasion	-11.9752
▁textural	-11.9752
▁maize	-11.9757
▁excluding	-11.976
▁jumps	-11.9762
▁locus	-11.9764
Dy	-11.9765
▁instrumentation	-11.9765
2/3	-11.9765
▁presently	-11.9766
▁GDP	-11.9767
▁reinforcing	-11.9768
▁nerve	-11.9768
▁DF	-11.9769
▁[28]	-11.977
ted	-11.977
▁(0.3	-11.977
RP	-11.9771
elastic	-11.9772
▁affinities	-11.9773
▁saddle	-11.9773
▁cultural	-11.9773
▁drives	-11.9773
▁inherently	-11.9777
▁electrospun	-11.9779
▁primitive	-11.9779
▁fabrics	-11.9779
▁dipoles	-11.9779
FEM	-11.978
Tp	-11.9782
)+∑	-11.9783
▁supercapacitor	-11.9784
▁recycle	-11.9787
▁cheap	-11.9787
EB	-11.9788
▁apical	-11.9789
▁dominating	-11.9789
▁centred	-11.9789
▁stratified	-11.979
du	-11.979
acetate	-11.9793
▁hierarchy	-11.9794
▁Unit	-11.9796
▁multifunctional	-11.9801
▁selectivities	-11.9801
▁deficient	-11.9802
▁91	-11.9802
▁[27]	-11.9802
▁SEC	-11.9803
▁submerged	-11.9805
rt	-11.9808
▁weakened	-11.9811
=100	-11.9811
Ei	-11.9813
▁demanding	-11.9814
▁waveform	-11.9814
ratio	-11.9816
▁Six	-11.9816
▁biomarkers	-11.9818
▁distinctly	-11.9818
▁query	-11.9819
▁suite	-11.9819
▁readout	-11.9822
▁rail	-11.9822
▁simplification	-11.9827
)&	-11.9827
▁proposes	-11.983
▁pictures	-11.9836
▁isolates	-11.9838
▁lysis	-11.9838
donating	-11.9838
SB	-11.984
)1/2	-11.9841
Tg	-11.9842
▁locate	-11.9843
▁52	-11.9843
GB	-11.9844
inset	-11.9846
▁facts	-11.9846
▁electroactive	-11.9848
▁condensate	-11.9848
▁[11	-11.9848
▁kaolinite	-11.9853
▁flange	-11.9853
ative	-11.9854
▁dissipated	-11.9855
▁interferences	-11.9856
neighbor	-11.9858
varying	-11.9859
▁polarizability	-11.9861
▁94	-11.9863
▁achieves	-11.9864
▁(8),	-11.9864
▁geo	-11.9866
▁graphical	-11.9868
AN	-11.9869
▁iridium	-11.9869
▁poisoning	-11.9869
▁2013;	-11.9871
lines	-11.9873
number	-11.9877
▁Together	-11.9879
▁mobilities	-11.9879
▁inconsistent	-11.9879
▁Lemma	-11.988
▁cortical	-11.988
▁coordinating	-11.988
▁Differences	-11.9883
▁blades	-11.9885
▁adapt	-11.9892
▁Peak	-11.9892
▁poles	-11.9892
carboxylic	-11.9894
▁vorticity	-11.9895
arene	-11.9895
▁Changes	-11.9897
▁0.05).	-11.9898
▁visually	-11.99
▁durations	-11.99
▁tabulated	-11.9901
▁springs	-11.9901
▁linearized	-11.9903
▁circumferential	-11.9906
▁SPS	-11.9907
▁DLS	-11.9907
ins	-11.9912
▁imidazolium	-11.9914
(10)	-11.9914
▁game	-11.9914
▁facet	-11.992
▁coincidence	-11.9923
▁fluoro	-11.9924
▁3–4	-11.9924
▁mixer	-11.9925
▁LF	-11.9926
▁5.7	-11.9927
▁deduce	-11.9928
▁Cross	-11.9928
NiO	-11.993
▁programme	-11.9934
▁alkene	-11.9935
PMMA	-11.9938
OS	-11.9938
▁fabricating	-11.9938
▁nanometers	-11.9938
▁documents	-11.9939
▁aptamer	-11.9939
▁latest	-11.994
▁beach	-11.9941
MWCNTs	-11.9941
▁normalised	-11.9942
▁ahead	-11.9945
▁[19]	-11.9945
En	-11.9946
+1(	-11.9949
▁opinion	-11.9949
We	-11.995
▁favour	-11.9951
▁handled	-11.9953
20,	-11.9953
▁cardiovascular	-11.9954
MG	-11.9954
▁Crystal	-11.9956
ites	-11.9958
▁purple	-11.9961
▁activating	-11.9962
▁DEM	-11.9964
▁municipal	-11.9964
▁furthermore	-11.997
▁2003).	-11.9971
▁aiming	-11.9978
fc	-11.9978
▁[0,	-11.9981
let	-11.9983
▁calc	-11.9985
▁supercapacitors	-11.9986
▁glutathione	-11.9987
path	-11.9988
6).	-11.9988
▁arbitrarily	-11.9991
=13	-11.9994
▁micron	-11.9996
▁Apparently	-11.9997
▁dopamine	-11.9998
ammonium	-12.0001
▁ZIF	-12.0001
▁GGA	-12.0004
structured	-12.0004
Ox	-12.0005
▁dimerization	-12.0006
▁underestimated	-12.0006
▁Numerous	-12.0008
▁libraries	-12.0008
standard	-12.0009
+4	-12.0009
▁carbene	-12.0013
▁functionals	-12.0013
▁photographs	-12.0014
sen	-12.0014
▁merit	-12.0015
▁motivation	-12.0017
rock	-12.0017
▁confining	-12.0018
▁rt	-12.002
ator	-12.002
▁magnetism	-12.0025
▁histories	-12.0029
ads	-12.0031
▁0.96	-12.0031
▁contract	-12.0031
Eqs	-12.0032
94	-12.0032
▁formally	-12.0034
▁Instrument	-12.0035
▁HH	-12.0037
▁stone	-12.0037
▁12-	-12.0042
▁mixes	-12.0042
▁silk	-12.0042
▁densely	-12.0047
▁mouth	-12.0049
▁humic	-12.0051
▁subscript	-12.0052
▁304	-12.0055
▁Lys	-12.0055
▁chromatograms	-12.0056
Supporting	-12.0058
▁addressing	-12.0064
▁Sodium	-12.0068
▁ribbon	-12.0069
▁intensively	-12.007
app	-12.0071
▁oblique	-12.0077
▁0.36	-12.0077
▁depict	-12.0079
▁utilizes	-12.0084
/10	-12.0086
rel	-12.0089
electrochemistry	-12.0089
▁spanning	-12.009
▁8)	-12.0091
toxic	-12.0095
▁LOD	-12.0095
▁discriminate	-12.0097
Fi	-12.0097
▁retaining	-12.0098
8+	-12.0098
▁African	-12.0098
op	-12.0098
▁MFC	-12.01
▁rf	-12.0101
▁alkanes	-12.0107
▁allylic	-12.0113
▁FCC	-12.0116
▁amongst	-12.0119
mathrm	-12.0121
▁subtraction	-12.0122
▁grazing	-12.0122
EIS	-12.0127
▁Tr	-12.0128
]+.	-12.0128
▁FG	-12.0129
▁guided	-12.0129
selectivity	-12.0129
▁trivalent	-12.0133
▁leachate	-12.0134
▁liquor	-12.0134
▁superconductor	-12.0135
ijk	-12.0136
-30	-12.0138
(0)=	-12.0138
▁nematic	-12.0139
▁larvae	-12.0139
▁soybean	-12.014
▁fair	-12.0143
▁DL	-12.0143
▁LV	-12.0145
▁classify	-12.0147
▁paleo	-12.0148
▁fulfilled	-12.015
▁orifice	-12.0151
▁(28)	-12.0153
▁cytometry	-12.0154
inter	-12.0157
▁AgNPs	-12.0158
▁logarithm	-12.0159
▁Sweden	-12.016
bonds	-12.016
Hz	-12.0162
+∫	-12.0162
▁charcoal	-12.0166
▁0.88	-12.0167
▁ruled	-12.0169
node	-12.017
▁UF	-12.0171
▁−78	-12.0173
▁neglecting	-12.0173
▁writing	-12.0182
▁ridges	-12.0184
▁expectations	-12.0187
▁palm	-12.0187
NCH	-12.0188
▁quarter	-12.0189
▁Simulation	-12.0189
▁populated	-12.0189
2)+	-12.019
▁neuro	-12.019
▁1–5	-12.019
▁9.6	-12.0192
▁penta	-12.0192
▁Lyapunov	-12.0193
▁antiviral	-12.0193
▁degeneracy	-12.0193
▁formulae	-12.0193
▁crystallizes	-12.0194
▁fringe	-12.0195
▁latex	-12.0196
ata	-12.0201
▁evolves	-12.0201
▁colloid	-12.0202
▁SrTiO	-12.0204
▁SCR	-12.021
PVA	-12.021
Merck	-12.0211
▁burden	-12.0211
▁fibrils	-12.0213
▁dependences	-12.0214
▁oleic	-12.0216
)2,	-12.0216
▁cancers	-12.0218
▁mitigate	-12.0223
▁seeding	-12.0223
cooling	-12.0224
1.0	-12.0225
▁basicity	-12.0226
▁refrigeration	-12.0226
▁wax	-12.0228
▁1999).	-12.023
CHCl	-12.023
▁inoculated	-12.0233
▁lactate	-12.0233
▁11).	-12.0233
▁PPh	-12.0236
▁pyridyl	-12.0236
▁[27].	-12.0237
▁prevalent	-12.0238
calculated	-12.0238
▁xylose	-12.0238
▁cytokine	-12.0239
np	-12.0241
)=∫	-12.0242
grain	-12.0242
LF	-12.0243
150	-12.0244
▁supplies	-12.0248
74	-12.0249
▁Zeiss	-12.025
EDTA	-12.0251
▁shield	-12.0253
▁photosynthetic	-12.0254
▁giant	-12.0254
▁fluorophore	-12.0256
fired	-12.0256
▁outflow	-12.0256
▁converges	-12.026
▁gathered	-12.026
7-	-12.0261
▁0.97	-12.0262
▁Con	-12.0264
▁SOD	-12.0265
EN	-12.0266
▁XANES	-12.0266
FWHM	-12.0267
standing	-12.0267
▁settlement	-12.0267
▁tubing	-12.027
times	-12.0272
▁injections	-12.0273
be	-12.0274
▁miRNA	-12.0279
▁2,3-	-12.028
▁exfoliation	-12.0281
▁cryo	-12.0282
▁processor	-12.0283
▁declined	-12.0284
▁69	-12.0284
▁outward	-12.0285
▁cisplatin	-12.0285
▁(26)	-12.0291
▁DSSCs	-12.0292
NB	-12.0293
valued	-12.0299
▁getting	-12.0299
▁transgenic	-12.0299
ella	-12.03
▁GCE	-12.0302
BS	-12.0304
▁Powder	-12.0305
▁hereafter	-12.0305
▁terraces	-12.0305
IT	-12.0306
▁resemble	-12.0307
▁behaviours	-12.0308
1.8	-12.0308
ester	-12.031
▁minority	-12.0312
▁See	-12.0313
▁investments	-12.0313
▁9.2	-12.0314
)≤	-12.0315
▁cultivated	-12.0316
▁sandy	-12.0317
▁clones	-12.0317
2.0	-12.0319
▁Oe	-12.032
BR	-12.032
▁sorbents	-12.0321
▁carbonation	-12.0321
▁microparticles	-12.0321
▁implicated	-12.0322
▁grooves	-12.0323
mann	-12.0325
▁vesicle	-12.0334
▁underground	-12.0336
▁Faraday	-12.0337
▁impaired	-12.0338
PET	-12.0338
▁nanoclusters	-12.0341
▁0.21	-12.0343
▁gait	-12.0343
obtained	-12.0344
▁relax	-12.0345
127	-12.0345
metallic	-12.0345
▁bioavailability	-12.0348
▁unpaired	-12.0348
▁glove	-12.0349
89	-12.0349
▁estimator	-12.0351
▁7.9	-12.0353
▁LiFePO	-12.0355
▁[20]	-12.0357
▁oxidize	-12.0358
Gr	-12.0359
▁refractory	-12.036
po	-12.0368
▁steadily	-12.037
ons	-12.0373
▁QM	-12.0374
arc	-12.0376
▁2.00	-12.0376
▁#1	-12.0381
▁stay	-12.0382
toluene	-12.0382
▁footprint	-12.0383
enriched	-12.0384
ov	-12.0385
5–	-12.0386
]-	-12.0386
▁lock	-12.0389
▁activator	-12.039
ep	-12.0391
∩	-12.0391
]/[	-12.0393
▁dehydrogenase	-12.0395
▁Theoretical	-12.0397
▁azimuthal	-12.0403
▁gallium	-12.0405
′−	-12.0405
▁claims	-12.0405
▁atomistic	-12.041
▁cracked	-12.0411
▁BO	-12.0413
▁5–10	-12.0417
Figures	-12.042
measured	-12.0424
ones	-12.0425
ard	-12.0425
▁emissivity	-12.0426
▁84	-12.0427
▁Thin	-12.0427
73	-12.0429
▁UA	-12.043
▁2000;	-12.043
▁ready	-12.0431
ey	-12.0431
existing	-12.0432
LO	-12.0432
▁responsive	-12.0432
▁MATLAB	-12.0432
▁Open	-12.0432
dispersive	-12.0434
▁sorting	-12.0434
▁logical	-12.0434
▁grass	-12.0435
▁colors	-12.0439
▁Much	-12.0441
▁potentiostat	-12.0444
15,	-12.0445
▁ferrous	-12.0445
▁aeration	-12.0445
neat	-12.0446
⊂	-12.0447
▁centroid	-12.0448
economic	-12.0449
VT	-12.0452
▁LH	-12.0453
▁arrive	-12.0453
▁0.90	-12.0454
uh	-12.0454
▁favoured	-12.0456
ina	-12.0456
▁trough	-12.0458
BET	-12.0459
▁LiMn	-12.0462
deposition	-12.0462
▁4.9	-12.0468
▁mis	-12.0469
▁readings	-12.047
board	-12.0471
▁bottles	-12.0472
pe	-12.0472
▁volatiles	-12.0472
▁Mw	-12.0472
▁FRET	-12.0474
▁electrospray	-12.0475
▁sustain	-12.0477
capped	-12.048
Rad	-12.0481
axial	-12.0481
▁limb	-12.0482
▁cartilage	-12.0483
▁colon	-12.0485
▁CuCl	-12.0486
ini	-12.0487
▁pi	-12.0491
weighted	-12.0495
▁SAXS	-12.0497
110	-12.0497
regulation	-12.0498
opening	-12.0498
her	-12.0501
▁strengthened	-12.0502
received	-12.0502
DTA	-12.0502
▁critically	-12.0505
▁balls	-12.0505
▁sensitivities	-12.0505
▁FITC	-12.0507
ano	-12.0508
▁rose	-12.0509
▁specify	-12.0509
=20	-12.051
▁tag	-12.0516
▁transduction	-12.0517
▁[2	-12.0521
▁0.34	-12.0521
▁DTA	-12.0529
,∀	-12.0529
JH	-12.053
▁anchoring	-12.053
▁photophysical	-12.053
▁discontinuities	-12.0534
▁relativistic	-12.0536
▁Huang	-12.0536
▁overlying	-12.054
▁JEM	-12.0543
▁antitumor	-12.0545
ux	-12.0545
▁NB	-12.0549
▁organ	-12.0549
′),	-12.0552
▁paradigm	-12.0554
▁misfit	-12.0555
▁Newtonian	-12.0556
▁Liquid	-12.0557
▁satellites	-12.056
▁spraying	-12.0564
den	-12.0564
▁cycled	-12.0566
▁Waters	-12.0567
▁distant	-12.0567
▁Specific	-12.0567
▁Oxygen	-12.0568
+/	-12.0578
▁prevailing	-12.058
td	-12.0582
▁determinant	-12.0583
FR	-12.0583
▁unidirectional	-12.0585
(|	-12.0586
▁LO	-12.0586
▁EE	-12.0586
▁89	-12.0589
▁Dynamic	-12.059
▁cyano	-12.059
▁encoded	-12.0591
▁rejected	-12.0591
equivalent	-12.0594
▁cryogenic	-12.0596
)→	-12.0601
▁128.4	-12.0602
▁deuterated	-12.061
unit	-12.061
▁lysine	-12.0611
▁VA	-12.0614
▁sublattice	-12.0614
▁25°	-12.0614
▁rounded	-12.0614
▁sensory	-12.0621
101	-12.0621
▁polyaniline	-12.0621
▁routinely	-12.0622
▁DME	-12.0622
▁collaboration	-12.0623
Eg	-12.0623
▁[21]	-12.0623
▁Po	-12.0626
actin	-12.0627
▁dehydrated	-12.0627
Tables	-12.0629
▁Freundlich	-12.0631
ny	-12.0632
6(	-12.0632
constant	-12.0634
▁∼3	-12.0635
▁conveniently	-12.0636
when	-12.0636
▁analysing	-12.0637
thin	-12.0639
▁rad	-12.0643
▁buffers	-12.0643
▁reorganization	-12.0644
▁Trp	-12.0647
▁[29].	-12.0647
NL	-12.0647
▁probing	-12.0648
▁electrophoretic	-12.0648
▁dangling	-12.0649
-14	-12.0649
▁`	-12.0649
ATR	-12.0649
▁vanish	-12.0651
▁ingredients	-12.0651
▁raises	-12.0652
EE	-12.0652
GF	-12.0653
▁offering	-12.0656
▁occupies	-12.066
▁254	-12.066
▁pitting	-12.066
ato	-12.0662
▁88	-12.0665
▁Hb	-12.0666
▁transmembrane	-12.0666
▁fix	-12.0666
▁linewidth	-12.0667
thiophene	-12.0667
▁diastereo	-12.067
▁2001;	-12.0672
▁4,4′-	-12.0675
)=2	-12.0676
▁clarity	-12.0677
▁hazards	-12.0678
▁[28].	-12.0678
▁jth	-12.0679
▁paint	-12.068
wood	-12.0683
▁coercivity	-12.0683
▁lava	-12.0686
diol	-12.0692
▁formations	-12.0694
▁desalination	-12.0694
▁persistence	-12.0695
▁infra	-12.0695
▁usefulness	-12.0698
▁Pc	-12.0701
VA	-12.0701
aza	-12.0702
▁137	-12.0702
▁allele	-12.0702
▁depositing	-12.0703
▁Tween	-12.0707
phenol	-12.0708
▁SAMs	-12.0709
▁awareness	-12.0712
▁dated	-12.0714
aromatic	-12.0716
▁propagated	-12.0717
▁estuary	-12.0718
▁JSM	-12.0718
▁HI	-12.0721
▁helped	-12.0722
2}	-12.0722
▁bones	-12.0722
▁debate	-12.0723
°)	-12.0723
alpha	-12.0723
vol	-12.0725
▁multiplying	-12.0725
▁dam	-12.0729
packed	-12.0732
Ab	-12.0732
▁sky	-12.0733
FD	-12.0735
To	-12.0735
▁speculate	-12.0737
▁corona	-12.0737
structural	-12.0738
▁coral	-12.0739
▁520	-12.0742
▁polarisation	-12.0743
▁55%	-12.0743
▁thank	-12.0744
FeO	-12.0746
▁BPA	-12.0748
epoxy	-12.0748
▁enormous	-12.0751
▁solvothermal	-12.0751
▁365	-12.0752
{{	-12.0752
RO	-12.0754
▁AgNO	-12.0754
▁Yu	-12.0757
rn	-12.0757
▁World	-12.0759
▁arrest	-12.0761
▁bitumen	-12.0762
▁nanofiber	-12.0763
▁61	-12.0763
^(	-12.0764
▁autocorrelation	-12.0764
▁binders	-12.0766
▁VG	-12.0769
Pu	-12.077
▁0.38	-12.077
▁positron	-12.0771
small	-12.0774
▁garnet	-12.0774
▁tails	-12.0775
2+(	-12.0777
▁sterically	-12.0778
▁Mott	-12.0778
▁permeable	-12.0778
▁multiplication	-12.078
▁volcano	-12.0781
▁NRs	-12.0784
▁Multiple	-12.0785
PAA	-12.0785
▁(10),	-12.0786
▁peculiar	-12.0792
OP	-12.0793
▁reliably	-12.0793
▁Engineering	-12.0793
▁veins	-12.0794
box	-12.0794
MWCNT	-12.0794
▁isopropyl	-12.0795
▁finish	-12.0796
▁prostate	-12.0796
▁functionally	-12.0796
▁flank	-12.0797
▁benzo	-12.0799
7),	-12.08
ATP	-12.0802
▁timescale	-12.0805
rp	-12.0805
▁rolled	-12.0806
▁flower	-12.0806
▁exploiting	-12.0807
▁∼4	-12.0808
▁4–6	-12.0808
▁Preliminary	-12.081
▁denaturation	-12.0811
▁nanocrystal	-12.0813
▁City	-12.0814
▁topics	-12.0815
MF	-12.0815
−/−	-12.0817
▁soaking	-12.0818
▁OP	-12.0824
▁EO	-12.0825
▁Soil	-12.0827
▁sponge	-12.0828
▁[22]	-12.0828
▁chemotherapy	-12.0828
▁exceptional	-12.083
▁claim	-12.083
▁(0,	-12.0831
.†	-12.0832
kin	-12.0833
▁mediator	-12.0834
▁viscosities	-12.0834
ise	-12.0838
▁anterior	-12.0839
▁geographic	-12.0839
▁sensible	-12.084
▁PLLA	-12.0842
▁suffers	-12.0842
stoichiometric	-12.0842
▁2010)	-12.0849
▁0.19	-12.0851
▁(32)	-12.0851
▁balances	-12.0851
▁raising	-12.0852
-3,	-12.0852
des	-12.0855
view	-12.0855
▁Do	-12.0855
▁Suzuki	-12.0858
▁Image	-12.0859
orbital	-12.0861
Ki	-12.0863
)]2	-12.0864
points	-12.0867
▁purged	-12.0871
do	-12.0872
▁BR	-12.0874
▁Northern	-12.0875
▁scratch	-12.0878
RB	-12.088
▁plated	-12.088
▁interparticle	-12.088
▁11(	-12.088
▁CPE	-12.088
▁orbits	-12.0881
▁dish	-12.0883
▁vials	-12.0885
▁inefficient	-12.0886
▁elliptical	-12.0887
▁Mc	-12.0888
▁cat	-12.0888
▁Kondo	-12.0888
▁Black	-12.089
▁aerogel	-12.0892
92	-12.0894
▁Plus	-12.0896
▁73	-12.0897
▁Lorentz	-12.0899
▁monochromatic	-12.09
▁subspace	-12.0901
ten	-12.0905
▁substitutions	-12.0906
▁colleagues	-12.0906
oid	-12.0906
▁closing	-12.0913
▁Application	-12.0915
yj	-12.0915
3.5	-12.0916
▁watershed	-12.0917
dl	-12.0918
▁Good	-12.092
HO	-12.0921
▁stocks	-12.0922
▁cup	-12.0925
▁functioning	-12.0925
▁multicomponent	-12.0926
▁Local	-12.0926
=7	-12.0927
▁denitrification	-12.0929
=14	-12.0931
▁74	-12.0931
▁Phe	-12.0938
▁semicircle	-12.0939
▁micropore	-12.0941
▁categorized	-12.0942
▁inadequate	-12.0943
*=	-12.0943
▁MIL	-12.0943
▁deeply	-12.0945
▁bubbling	-12.0946
▁anchor	-12.0946
1.1	-12.0949
̅	-12.0949
▁porphyrins	-12.0952
×10−4	-12.0954
▁brush	-12.0956
▁(9),	-12.0957
▁crystallize	-12.0958
▁10−8	-12.0959
▁evidences	-12.0959
▁RL	-12.0963
poor	-12.0963
▁Elmer	-12.0967
▁psi	-12.0969
▁stereochemistry	-12.0976
▁entrainment	-12.0976
relative	-12.0977
syn	-12.098
▁men	-12.098
▁polymorphs	-12.098
▁FEI	-12.0981
▁teeth	-12.0982
hr	-12.0984
PLA	-12.0985
ance	-12.0986
iron	-12.0987
▁epoxidation	-12.0987
▁st	-12.0987
▁PN	-12.0989
▁MPC	-12.0991
▁macrocycle	-12.0993
Tl	-12.0997
▁Stage	-12.0998
▁explanations	-12.0998
▁equimolar	-12.0999
▁ħ	-12.0999
▁virgin	-12.1
▁128.3	-12.1
▁prefer	-12.1001
▁office	-12.1001
▁PSA	-12.1003
▁stabilizes	-12.1004
open	-12.1005
▁synthesizing	-12.1005
▁Brownian	-12.1006
▁evolving	-12.1007
inorganic	-12.1007
▁cooler	-12.1007
▁1/3	-12.1009
▁18%	-12.1011
▁modular	-12.1011
▁monoclonal	-12.1011
▁organics	-12.1012
imethylformamide	-12.1012
▁1800	-12.1018
▁clamped	-12.1019
AE	-12.102
▁voltammogram	-12.1023
▁Fenton	-12.1027
part	-12.1027
▁KI	-12.1029
▁Landau	-12.1031
▁centrifuge	-12.1032
dispersed	-12.1032
▁prime	-12.1032
▁lighter	-12.1034
PtCl	-12.1036
▁diabetic	-12.1037
▁referring	-12.1037
▁interphase	-12.1038
nf	-12.1039
▁mutually	-12.1043
▁9%	-12.1044
▁biofuels	-12.1044
▁spindle	-12.1047
▁updating	-12.1048
▁tr	-12.1048
▁BMP	-12.105
▁Ten	-12.1051
▁InAs	-12.1051
▁refraction	-12.1052
AL	-12.1052
<0	-12.1053
QD	-12.1054
▁gun	-12.1054
▁quadrature	-12.1058
▁Plasma	-12.106
▁avoids	-12.1063
▁perovskites	-12.1065
4.5	-12.1066
methylene	-12.1068
▁Ki	-12.1069
▁rms	-12.107
▁amides	-12.107
▁polyurethane	-12.1071
▁leak	-12.1071
1|	-12.1071
▁soaked	-12.1072
▁NADH	-12.1073
▁Calculations	-12.1075
▁constantly	-12.1076
▁biases	-12.1077
▁dietary	-12.1077
▁79	-12.1079
▁whenever	-12.1081
▁OER	-12.1083
▁13%	-12.1084
▁proxy	-12.1085
83	-12.1085
▁discusses	-12.1086
mixed	-12.1087
▁impeller	-12.1088
▁subjective	-12.1089
▁Adsorption	-12.1089
▁wetland	-12.1089
▁1999;	-12.109
▁transferring	-12.1091
PN	-12.1091
Le	-12.1092
Is	-12.1093
▁mark	-12.1093
▁revised	-12.1096
)3]	-12.1096
▁colourless	-12.1097
GGA	-12.1098
▁overestimated	-12.1098
▁aromatics	-12.1099
▁Approximately	-12.1101
▁temporary	-12.1101
▁effluents	-12.1103
world	-12.1104
▁gently	-12.1108
class	-12.1108
▁generality	-12.1108
–200	-12.1108
Ch	-12.1109
DL	-12.1109
▁FD	-12.1112
▁causal	-12.1112
▁11.5	-12.1113
▁lubricant	-12.1113
▁catch	-12.1113
▁5′	-12.1114
▁transit	-12.1115
▁488	-12.1117
▁0.002	-12.1117
▁partitioned	-12.1117
LV	-12.1117
=−1	-12.1119
▁frontal	-12.112
▁extruded	-12.1121
▁rhombohedral	-12.1122
▁hinder	-12.1123
▁abrasion	-12.1126
▁manifested	-12.1126
▁propagates	-12.1127
▁labile	-12.1127
])	-12.1128
▁broadband	-12.113
▁alkynes	-12.113
▁synchronous	-12.1131
▁$	-12.1134
MAS	-12.1134
▁Bo	-12.1135
<1	-12.1135
μν	-12.1137
▁0.94	-12.1137
la	-12.1142
Pe	-12.1142
▁(%):	-12.1143
▁rinsing	-12.1143
cold	-12.1145
▁Blue	-12.1145
EO	-12.1146
)〉	-12.1147
dependence	-12.1148
▁outline	-12.1148
▁97%	-12.1148
▁nanosized	-12.1149
≔	-12.1149
PVP	-12.115
▁tide	-12.1155
index	-12.1155
partial	-12.1157
▁biomaterials	-12.1157
LB	-12.1159
▁TPR	-12.1161
▁labor	-12.1161
▁Miocene	-12.1162
▁valleys	-12.1163
▁accelerator	-12.1167
2∑	-12.1171
▁12.0	-12.1171
▁Markov	-12.1173
▁organism	-12.1173
▁weakening	-12.1175
act	-12.1178
▁hydrates	-12.1178
](	-12.1179
▁0.89	-12.1182
▁71	-12.1184
▁biotin	-12.1184
▁GE	-12.1184
▁detached	-12.1186
▁machinery	-12.1186
RD	-12.1187
▁quantifying	-12.1188
▁0.0	-12.1188
▁Rather	-12.1193
▁loci	-12.1193
▁engineers	-12.1196
▁absorptions	-12.1197
▁align	-12.1197
▁0.29	-12.1197
▁physico	-12.1197
▁Structure	-12.1198
▁impacted	-12.12
▁anchored	-12.12
▁0.80	-12.1201
▁Post	-12.1202
▁linkers	-12.1204
▁sublimation	-12.1204
▁minimizes	-12.121
+1+	-12.1211
▁(2009)	-12.1213
▁dipping	-12.1219
▁(600	-12.122
▁hemicellulose	-12.1222
dione	-12.1223
▁consolidation	-12.1223
▁Union	-12.1224
gate	-12.1225
distance	-12.1226
▁hit	-12.1226
heptane	-12.1228
▁chromatogram	-12.1229
▁6),	-12.1231
flight	-12.1234
▁wavenumbers	-12.1236
▁laterally	-12.1239
▁deconvolution	-12.1241
▁emergency	-12.1241
▁noisy	-12.1241
▁silt	-12.1242
▁declare	-12.1243
VB	-12.1244
van	-12.1246
▁Ro	-12.1248
▁Mars	-12.1251
▁sulfonic	-12.1251
▁perspectives	-12.1252
▁catalytically	-12.1252
▁81	-12.1253
▁strontium	-12.1253
▁2.5%	-12.1254
▁SMA	-12.1256
▁axisymmetric	-12.1257
▁shadow	-12.1257
16,	-12.1262
▁imprinted	-12.1262
▁polymerisation	-12.1263
▁mother	-12.1264
▁concurrent	-12.1264
▁traditionally	-12.1264
NE	-12.1264
ZnS	-12.1267
▁adds	-12.1269
▁emerges	-12.1269
▁asymptotically	-12.1272
▁PDI	-12.1275
▁request	-12.1277
▁message	-12.1278
▁polydispersity	-12.1278
▁plagioclase	-12.1278
▁pendant	-12.1278
▁thousands	-12.1281
▁behavioral	-12.1282
▁enantiomeric	-12.1283
▁albedo	-12.1284
tf	-12.1287
region	-12.1289
▁lenses	-12.1291
▁Gold	-12.1292
▁clinically	-12.1293
sided	-12.1294
▁Hong	-12.1294
▁7.4)	-12.1294
▁LSM	-12.1294
▁algebra	-12.1296
▁conductors	-12.13
▁Project	-12.13
analysis	-12.1301
/6-31	-12.1302
▁routing	-12.1302
–30	-12.1308
▁guaranteed	-12.131
▁titanate	-12.131
▁Relative	-12.1313
▁3′	-12.1313
▁linguistic	-12.1314
▁SNR	-12.1315
▁0.48	-12.1317
▁laminates	-12.1317
▁ancient	-12.1317
▁preparative	-12.1322
▁drill	-12.1326
▁16%	-12.1328
▁stiff	-12.1332
▁producers	-12.1333
▁intergranular	-12.1333
▁Go	-12.1334
▁96%	-12.1334
▁92%	-12.1337
▁Ad	-12.1338
nitrogen	-12.1339
▁bedrock	-12.1339
▁gum	-12.1341
▁constrain	-12.1343
▁Quantitative	-12.1344
cat	-12.1344
▁polyester	-12.1346
▁polymerized	-12.1351
▁86	-12.1354
jet	-12.1354
▁pine	-12.1355
PCL	-12.1357
▁Animal	-12.1358
▁vegetable	-12.1358
↔	-12.1358
▁farmers	-12.1358
▁bifunctional	-12.136
▁biocompatible	-12.1363
▁surrogate	-12.1364
carboxylate	-12.1365
▁monodisperse	-12.1366
-50	-12.1366
▁bear	-12.1368
▁accord	-12.1368
▁prismatic	-12.137
aligned	-12.1373
alization	-12.1376
▁continuation	-12.1376
▁fertilizer	-12.1377
▁backscattering	-12.1377
▁sales	-12.1378
▁impose	-12.1378
*,	-12.1379
▁sieves	-12.1381
tail	-12.1381
(7)	-12.1383
▁Polymer	-12.1384
▁Beyond	-12.1388
▁PRO	-12.1388
°,	-12.1389
▁marrow	-12.1391
▁ribbons	-12.1393
AG	-12.1395
▁se	-12.1397
▁monolith	-12.1398
▁externally	-12.14
▁austenitic	-12.1401
protected	-12.1405
▁refluxing	-12.1405
▁DD	-12.1408
▁minus	-12.1409
▁LM	-12.1409
▁complications	-12.1409
▁PbS	-12.141
▁Global	-12.1413
▁embryonic	-12.1414
▁gravel	-12.1414
▁≠	-12.1415
▁montmorillonite	-12.1415
pn	-12.1417
▁Mach	-12.1417
efficiency	-12.1418
▁Province	-12.1419
▁1998).	-12.142
▁acetaldehyde	-12.142
▁reconstruct	-12.1422
especially	-12.1423
▁aware	-12.1423
can	-12.1425
▁balancing	-12.1427
≪	-12.1427
=|	-12.143
▁TH	-12.1431
▁cr	-12.1432
▁questionnaire	-12.1432
/4	-12.1433
▁1.5%	-12.1435
6–	-12.1436
▁aggressive	-12.1437
▁jobs	-12.1438
▁fired	-12.144
▁(∼1	-12.1443
▁sheath	-12.1443
▁ideally	-12.1444
▁(5).	-12.1451
▁bleaching	-12.1452
▁Inter	-12.1456
▁manage	-12.1461
MOF	-12.1463
▁ascertain	-12.1466
▁rotate	-12.1466
900	-12.147
▁reused	-12.1471
▁225	-12.1472
guest	-12.1472
each	-12.1474
▁mediate	-12.1474
▁doublets	-12.1475
▁BG	-12.1475
▁HEPES	-12.1476
▁GI	-12.1477
▁containers	-12.1479
▁coarser	-12.1482
porous	-12.1485
▁art	-12.1488
▁statistic	-12.1489
▁crystallisation	-12.1489
stabilized	-12.149
KI	-12.1494
▁rendering	-12.1496
RM	-12.1496
▁cure	-12.1497
sensitized	-12.1497
▁1998	-12.1501
▁(29)	-12.1506
fin	-12.1506
′′(	-12.1509
▁serine	-12.1511
▁(100),	-12.1514
▁LEDs	-12.1515
ej	-12.1517
peptide	-12.1518
▁clustered	-12.1519
crown	-12.1519
(4	-12.152
link	-12.1523
▁pooled	-12.1523
▁neutralization	-12.1525
▁bromine	-12.1526
▁(35	-12.1526
▁pressurized	-12.1532
▁GeV	-12.1533
▁visit	-12.1533
▁dendrite	-12.1533
▁joining	-12.1534
▁si	-12.1534
▁man	-12.1536
▁scintillation	-12.1538
▁Weibull	-12.1538
▁German	-12.1539
NG	-12.1541
▁damages	-12.1542
▁biochar	-12.1543
eqn	-12.1544
For	-12.1544
▁11%	-12.1544
▁chemisorbed	-12.1544
▁electrolytic	-12.1545
ash	-12.1546
▁pairwise	-12.1546
▁parasitic	-12.1547
▁diamagnetic	-12.155
rc	-12.1553
▁geometrically	-12.1553
transition	-12.1553
mainly	-12.1554
▁DEA	-12.1559
ising	-12.1561
mix	-12.1563
22+	-12.1563
▁unprecedented	-12.1563
▁1998;	-12.1563
▁horizontally	-12.1564
IA	-12.1564
▁Kr	-12.1567
▁decorated	-12.1567
▁5°	-12.1569
▁bin	-12.1571
∏	-12.1571
dark	-12.1571
▁Xu	-12.1573
▁[30].	-12.1575
−1+	-12.1576
▁sandwiched	-12.1578
▁nmol	-12.1579
▁emitters	-12.1581
▁kinematics	-12.1582
▁departure	-12.1583
▁superlattice	-12.1584
▁phosphates	-12.1584
▁cytoplasmic	-12.1584
▁saw	-12.1584
▁0.93	-12.1586
▁oligomer	-12.1587
▁repetitive	-12.1587
fa	-12.1587
▁crossed	-12.1589
▁infinity	-12.1589
▁associate	-12.1593
conversion	-12.1593
×1	-12.1596
▁independence	-12.1597
▁intrinsically	-12.1599
▁GT	-12.1599
▁supra	-12.16
▁Gauss	-12.1602
▁adatoms	-12.1606
isomer	-12.1606
▁PAR	-12.1606
▁FI	-12.1606
▁bromo	-12.1608
8),	-12.1609
▁seek	-12.1609
▁Life	-12.1611
▁shaken	-12.1611
▁sealing	-12.1611
▁nucleate	-12.1612
▁makers	-12.1612
▁disperse	-12.1613
▁Doppler	-12.1614
xt	-12.1616
▁RG	-12.1617
stranded	-12.1618
▁0.025	-12.1621
▁Gy	-12.1622
Agilent	-12.1624
FI	-12.1624
methane	-12.1624
▁denser	-12.1625
rk	-12.1625
▁Voc	-12.1629
▁separates	-12.1629
▁informed	-12.163
▁egg	-12.1631
▁440	-12.1631
IF	-12.1631
▁LE	-12.1633
▁HCO	-12.1634
Phe	-12.1635
▁unwanted	-12.1639
Ala	-12.164
▁530	-12.1644
▁frontier	-12.1645
▁0.37	-12.1645
developed	-12.1648
▁LES	-12.1649
)2+	-12.165
▁learn	-12.1652
ge	-12.1656
-1,2-	-12.1657
sea	-12.166
▁preserving	-12.166
▁?	-12.166
▁(0.25	-12.1661
2)]	-12.1662
▁Sh	-12.1663
▁Lastly	-12.1665
▁suppresses	-12.1666
▁RES	-12.1667
▁SHG	-12.1668
▁micrometer	-12.1669
▁seal	-12.1669
▁alternatively	-12.1671
▁chromatin	-12.1671
▁murine	-12.1672
alkanes	-12.1672
▁325	-12.1673
▁TX	-12.1674
▁Namely	-12.1677
▁participating	-12.1677
▁tract	-12.1678
injection	-12.1678
▁silyl	-12.1678
▁128.6	-12.1679
▁0.87	-12.168
▁PID	-12.168
▁6000	-12.1681
▁energetics	-12.1681
▁CDs	-12.1682
▁dome	-12.1683
obs	-12.1683
absorption	-12.1686
▁session	-12.1686
▁hope	-12.1688
▁humidified	-12.169
ero	-12.169
▁1960	-12.1693
▁addresses	-12.1693
membrane	-12.1694
vide	-12.1696
▁upwelling	-12.1696
▁MODIS	-12.1697
▁swollen	-12.1698
▁COX	-12.1699
MI	-12.1704
▁slot	-12.1705
▁epi	-12.1706
▁homologous	-12.171
▁SV	-12.171
▁decide	-12.1714
symmetry	-12.1715
▁uranyl	-12.1715
▁256	-12.1722
chemistry	-12.1722
lcub	-12.1723
▁campaign	-12.1724
∈[	-12.1724
version	-12.1725
▁developmental	-12.1726
CoA	-12.1726
TPD	-12.1727
▁spark	-12.1727
under	-12.1727
▁VP	-12.173
▁academic	-12.173
▁tritium	-12.1735
▁Density	-12.1735
▁(002)	-12.1737
▁blot	-12.1739
▁0.60	-12.174
▁duplicate	-12.174
rcub	-12.1741
▁14%	-12.1741
▁smoother	-12.1741
▁crushing	-12.1742
▁sulfoxide	-12.1744
▁oxidised	-12.1744
▁3′-	-12.1745
Tw	-12.1746
▁Absorption	-12.1747
GM	-12.1748
▁Michael	-12.1749
11+	-12.1751
ON	-12.1752
]2	-12.1753
boronic	-12.1754
▁luciferase	-12.1755
▁excitonic	-12.1756
NI	-12.1757
▁characterizes	-12.1758
▁weighing	-12.1761
▁macrocyclic	-12.1761
▁Series	-12.1762
▁hypo	-12.1763
5/	-12.1763
▁Met	-12.1767
▁0.67	-12.1768
▁equality	-12.1769
directed	-12.177
▁VC	-12.1771
▁depositional	-12.1774
▁epitaxy	-12.1774
ensis	-12.1774
▁pan	-12.1774
▁vent	-12.1779
▁Solution	-12.1782
▁370	-12.1783
▁brick	-12.1785
▁TEA	-12.1788
▁transducers	-12.1791
▁0.42	-12.1792
▁identifies	-12.1793
▁seriously	-12.1797
▁carries	-12.1799
▁noticeably	-12.1799
×100	-12.1799
LE	-12.1799
ure	-12.18
▁Thereafter	-12.1804
▁6):	-12.1805
▁render	-12.1806
EtOH	-12.1806
▁rated	-12.1809
▁2,2′-	-12.1811
▁encouraging	-12.1812
▁compacted	-12.1813
scattering	-12.1815
▁miRNAs	-12.1817
▁ubiquitous	-12.1817
▁propensity	-12.1818
▁Escherichia	-12.1819
▁converts	-12.182
▁keto	-12.1824
▁Contrary	-12.1825
▁truncation	-12.1825
▁capillaries	-12.1825
▁shaker	-12.1828
▁(11),	-12.1829
Mi	-12.1829
▁430	-12.183
▁Index	-12.183
–1.	-12.1831
dA	-12.1834
▁0.31	-12.1835
▁silicates	-12.1835
SCE	-12.1837
▁vulnerability	-12.1844
▁LL	-12.1847
▁managed	-12.1849
▁beaker	-12.1852
▁polyimide	-12.1854
▁97	-12.1855
▁singly	-12.1858
▁pp	-12.1859
▁participant	-12.186
unsaturated	-12.186
friendly	-12.1861
−∑	-12.1861
▁phosphorylated	-12.1862
▁grades	-12.1863
▁earliest	-12.1864
▁Asian	-12.1866
=1.5	-12.1867
▁lane	-12.1868
▁Lab	-12.1869
▁CFRP	-12.187
∪	-12.1871
▁Du	-12.1872
▁spiro	-12.1874
▁silanol	-12.1874
covalent	-12.1876
▁MIC	-12.1878
▁Or	-12.1881
▁[,].	-12.1882
▁shedding	-12.1884
▁Region	-12.1887
▁outliers	-12.1888
▁Selected	-12.189
here	-12.1891
▁affording	-12.1891
▁uniquely	-12.1894
TO	-12.1896
▁injuries	-12.1896
▁monsoon	-12.1897
resistance	-12.1898
▁diffused	-12.1901
▁gender	-12.1901
cross	-12.1902
▁concentric	-12.1903
▁hyperbolic	-12.1903
Ad	-12.1905
▁benzaldehyde	-12.1905
▁pack	-12.1908
▁(2011)	-12.1909
▁Agency	-12.191
▁subsection	-12.1912
▁NMP	-12.1916
RL	-12.1918
▁sorted	-12.1919
▁surroundings	-12.192
MV	-12.192
ft	-12.1921
▁captures	-12.1921
▁[31].	-12.1922
▁biaxial	-12.1922
bs	-12.1922
▁Arctic	-12.1923
▁trench	-12.1923
▁translated	-12.1923
)6	-12.1923
▁socio	-12.1926
▁emu	-12.1927
▁evacuation	-12.1929
▁refining	-12.193
xylene	-12.193
▁metathesis	-12.193
▁pillar	-12.1931
optimal	-12.1932
▁characters	-12.1934
▁book	-12.1934
cap	-12.1935
▁0.86	-12.1937
▁kink	-12.1939
▁punch	-12.1939
▁dysfunction	-12.1943
▁1.75	-12.1945
▁destroy	-12.1946
▁profound	-12.1947
▁twofold	-12.1949
▁∥	-12.1953
▁pathological	-12.1955
▁incorrect	-12.1956
▁Is	-12.1958
PDA	-12.1958
ting	-12.1962
nu	-12.1964
▁province	-12.1965
go	-12.1965
eg	-12.1966
lab	-12.1967
▁5.9	-12.1968
▁Chem	-12.197
white	-12.1972
▁satisfaction	-12.1975
×10−5	-12.1978
▁presumed	-12.1978
▁NLO	-12.1979
▁ranked	-12.1979
ino	-12.1983
determined	-12.1984
ko	-12.1986
▁recharge	-12.1987
▁inoculum	-12.1988
▁Su	-12.1992
▁assimilation	-12.1995
▁CoO	-12.1995
▁Nicolet	-12.1997
[−	-12.1997
▁decomposes	-12.1997
▁VOCs	-12.1997
▁TMP	-12.1998
▁phosphatase	-12.1998
velocity	-12.1998
shear	-12.1999
▁9-	-12.1999
▁Australian	-12.2001
Glu	-12.2002
▁unfolding	-12.2002
▁0.92	-12.2004
(∂	-12.2005
▁bits	-12.2005
▁pastes	-12.2006
metric	-12.2007
ens	-12.201
3&	-12.201
▁mortars	-12.2011
▁premixed	-12.2011
▁sure	-12.2012
▁exposing	-12.2014
pin	-12.2015
▁employment	-12.2015
▁TO	-12.2015
FAB	-12.2015
▁dissipative	-12.2015
▁Hi	-12.2017
irradiated	-12.2018
2.1	-12.2019
Cys	-12.2019
▁undesired	-12.2021
▁0.46	-12.2021
▁Mexico	-12.2021
▁CHP	-12.2021
2→	-12.2022
ell	-12.2022
▁CHO	-12.2024
▁habitats	-12.2024
▁femtosecond	-12.2024
▁dextran	-12.2026
▁resolutions	-12.2026
▁continuing	-12.2027
RNA	-12.2028
▁synthase	-12.2031
▁0<	-12.2033
physical	-12.2033
▁adsorbates	-12.2037
▁tentatively	-12.2041
▁convergent	-12.2041
▁diurnal	-12.2042
df	-12.2042
▁vigorously	-12.2043
▁ABC	-12.2044
▁resting	-12.2045
efficient	-12.2046
▁Fast	-12.2046
▁coincident	-12.2047
▁truly	-12.2047
▁genotype	-12.2047
▁Medical	-12.2048
▁1.05	-12.2049
▁compost	-12.2049
salt	-12.2049
-1,4-	-12.2051
▁Student	-12.2051
▁acidified	-12.2051
▁releases	-12.2053
Ho	-12.2053
▁GDL	-12.2054
▁cohesion	-12.2054
▁gates	-12.2054
3.1	-12.2054
▁GL	-12.2055
▁FeO	-12.2056
▁62	-12.2056
▁Scherrer	-12.2056
▁(2008)	-12.2061
det	-12.2062
▁Ea	-12.2062
▁TLR	-12.2066
▁alkane	-12.2067
0.01	-12.2071
Cy	-12.2072
▁Hill	-12.2072
▁suppressing	-12.2079
NaCl	-12.2079
▁reserve	-12.2081
species	-12.2084
▁glacier	-12.2084
(0	-12.2086
expressing	-12.2088
▁dwell	-12.2088
-200	-12.209
▁reserves	-12.209
PCA	-12.2091
▁dendrites	-12.2093
kr	-12.2093
▁DIC	-12.2094
similar	-12.2096
▁specialized	-12.2096
hn	-12.2103
▁utilised	-12.2105
▁aeruginosa	-12.2107
▁worn	-12.2107
▁interconnection	-12.2111
▁bentonite	-12.2112
▁128.2	-12.2112
kk	-12.2114
ix	-12.2114
▁retains	-12.2116
▁Lo	-12.2116
▁inspired	-12.2118
▁deemed	-12.212
▁corrosive	-12.2121
▁benthic	-12.2121
▁her	-12.2121
▁Gly	-12.2122
steady	-12.2125
▁deriving	-12.2127
▁Diffraction	-12.2127
▁entity	-12.2127
His	-12.2128
CoO	-12.213
KS	-12.2131
▁rs	-12.2134
▁England	-12.2134
▁nylon	-12.2135
▁33%	-12.2135
▁cloned	-12.2135
▁empirically	-12.2137
NMe	-12.2137
▁540	-12.2138
▁NK	-12.2138
▁transitional	-12.214
▁piecewise	-12.2141
boundary	-12.2144
▁Han	-12.2147
▁extrinsic	-12.2147
▁Eastern	-12.2148
▁occasionally	-12.2148
=1.0	-12.2149
▁ii	-12.2149
(8)	-12.215
▁Solutions	-12.2152
▁decoupled	-12.2152
▁Lorentzian	-12.2155
6/	-12.2156
▁affords	-12.2157
▁−5	-12.2158
▁underneath	-12.216
▁survive	-12.216
▁deployed	-12.2161
▁openings	-12.2161
▁eliminates	-12.2161
▁1997).	-12.2162
▁sprayed	-12.2163
▁mirrors	-12.2163
TCP	-12.2168
PPy	-12.217
▁128.7	-12.2172
▁[32].	-12.2172
▁Vi	-12.2173
▁vibrating	-12.2174
×10−6	-12.2174
▁Chi	-12.2176
▁debonding	-12.2177
cyano	-12.2177
▁(−)-	-12.218
▁vulnerable	-12.2181
▁biogenic	-12.2182
▁mission	-12.2186
▁Val	-12.2187
(3-	-12.2188
▁NY	-12.219
▁tremendous	-12.2193
▁photosynthesis	-12.2194
steel	-12.2198
▁extensional	-12.2199
▁10–20	-12.2199
▁1.0,	-12.2199
span	-12.2199
▁Electronic	-12.2199
▁mountain	-12.2203
mono	-12.2204
▁farms	-12.2204
aqueous	-12.2206
Ec	-12.2208
▁perimeter	-12.2208
▁vanishing	-12.221
▁investigators	-12.2212
▁(0.4	-12.2213
▁deviates	-12.2214
▁staggered	-12.2215
▁MK	-12.2218
▁Set	-12.2218
empirical	-12.2221
▁nc	-12.2221
▁wash	-12.2221
▁macromolecular	-12.2222
3+/	-12.2223
ty	-12.2223
GI	-12.2224
cluster	-12.2224
▁exclusive	-12.2227
GL	-12.2227
▁actuation	-12.2228
▁autumn	-12.2228
catalytic	-12.2229
▁bad	-12.223
[...]
